{
  "version": "1.0",
  "truncation": null,
  "padding": null,
  "added_tokens": [
    {
      "id": 0,
      "content": "[UNK]",
      "single_word": false,
      "lstrip": false,
      "rstrip": false,
      "normalized": false,
      "special": true
    },
    {
      "id": 1,
      "content": "[PAD]",
      "single_word": false,
      "lstrip": false,
      "rstrip": false,
      "normalized": false,
      "special": true
    },
    {
      "id": 2,
      "content": "[CLS]",
      "single_word": false,
      "lstrip": false,
      "rstrip": false,
      "normalized": false,
      "special": true
    },
    {
      "id": 3,
      "content": "[SEP]",
      "single_word": false,
      "lstrip": false,
      "rstrip": false,
      "normalized": false,
      "special": true
    },
    {
      "id": 4,
      "content": "[MASK]",
      "single_word": false,
      "lstrip": false,
      "rstrip": false,
      "normalized": false,
      "special": true
    }
  ],
  "normalizer": {
    "type": "BertNormalizer",
    "clean_text": true,
    "handle_chinese_chars": true,
    "strip_accents": null,
    "lowercase": true
  },
  "pre_tokenizer": null,
  "post_processor": {
    "type": "TemplateProcessing",
    "single": [
      {
        "SpecialToken": {
          "id": "[CLS]",
          "type_id": 0
        }
      },
      {
        "Sequence": {
          "id": "A",
          "type_id": 0
        }
      },
      {
        "SpecialToken": {
          "id": "[SEP]",
          "type_id": 0
        }
      }
    ],
    "pair": [
      {
        "SpecialToken": {
          "id": "[CLS]",
          "type_id": 0
        }
      },
      {
        "Sequence": {
          "id": "A",
          "type_id": 0
        }
      },
      {
        "SpecialToken": {
          "id": "[SEP]",
          "type_id": 0
        }
      },
      {
        "Sequence": {
          "id": "B",
          "type_id": 1
        }
      },
      {
        "SpecialToken": {
          "id": "[SEP]",
          "type_id": 1
        }
      }
    ],
    "special_tokens": {
      "[CLS]": {
        "id": "[CLS]",
        "ids": [
          2
        ],
        "tokens": [
          "[CLS]"
        ]
      },
      "[SEP]": {
        "id": "[SEP]",
        "ids": [
          3
        ],
        "tokens": [
          "[SEP]"
        ]
      }
    }
  },
  "decoder": {
    "type": "WordPiece",
    "prefix": "##",
    "cleanup": true
  },
  "model": {
    "type": "WordPiece",
    "unk_token": "[UNK]",
    "continuing_subword_prefix": "##",
    "max_input_chars_per_word": 100,
    "vocab": {
      "[UNK]": 0,
      "[PAD]": 1,
      "[CLS]": 2,
      "[SEP]": 3,
      "[MASK]": 4,
      " ": 5,
      "!": 6,
      "\"": 7,
      "#": 8,
      "$": 9,
      "%": 10,
      "&": 11,
      "'": 12,
      "(": 13,
      ")": 14,
      "*": 15,
      "+": 16,
      ",": 17,
      "-": 18,
      ".": 19,
      "/": 20,
      "0": 21,
      "1": 22,
      "2": 23,
      "3": 24,
      "4": 25,
      "5": 26,
      "6": 27,
      "7": 28,
      "8": 29,
      "9": 30,
      ":": 31,
      ";": 32,
      "<": 33,
      "=": 34,
      ">": 35,
      "?": 36,
      "@": 37,
      "[": 38,
      "\\": 39,
      "]": 40,
      "^": 41,
      "_": 42,
      "`": 43,
      "a": 44,
      "b": 45,
      "c": 46,
      "d": 47,
      "e": 48,
      "f": 49,
      "g": 50,
      "h": 51,
      "i": 52,
      "j": 53,
      "k": 54,
      "l": 55,
      "m": 56,
      "n": 57,
      "o": 58,
      "p": 59,
      "q": 60,
      "r": 61,
      "s": 62,
      "t": 63,
      "u": 64,
      "v": 65,
      "w": 66,
      "x": 67,
      "y": 68,
      "z": 69,
      "|": 70,
      "}": 71,
      "~": 72,
      "¡": 73,
      "¢": 74,
      "£": 75,
      "¥": 76,
      "§": 77,
      "°": 78,
      "±": 79,
      "²": 80,
      "³": 81,
      "´": 82,
      "µ": 83,
      "·": 84,
      "º": 85,
      "½": 86,
      "¿": 87,
      "×": 88,
      "ß": 89,
      "æ": 90,
      "ð": 91,
      "ø": 92,
      "þ": 93,
      "đ": 94,
      "ħ": 95,
      "ı": 96,
      "ł": 97,
      "œ": 98,
      "ɐ": 99,
      "ɑ": 100,
      "ɒ": 101,
      "ɔ": 102,
      "ə": 103,
      "ɛ": 104,
      "ɜ": 105,
      "ɡ": 106,
      "ɢ": 107,
      "ɪ": 108,
      "ɫ": 109,
      "ɳ": 110,
      "ɽ": 111,
      "ɾ": 112,
      "ʁ": 113,
      "ʃ": 114,
      "ʊ": 115,
      "ʋ": 116,
      "ʒ": 117,
      "ʔ": 118,
      "ʕ": 119,
      "ʲ": 120,
      "ʻ": 121,
      "ʼ": 122,
      "ʾ": 123,
      "ʿ": 124,
      "ˈ": 125,
      "ˌ": 126,
      "ː": 127,
      "α": 128,
      "β": 129,
      "γ": 130,
      "δ": 131,
      "ε": 132,
      "η": 133,
      "θ": 134,
      "ι": 135,
      "κ": 136,
      "λ": 137,
      "μ": 138,
      "ν": 139,
      "ξ": 140,
      "ο": 141,
      "π": 142,
      "ρ": 143,
      "ς": 144,
      "σ": 145,
      "τ": 146,
      "υ": 147,
      "φ": 148,
      "χ": 149,
      "ψ": 150,
      "ω": 151,
      "а": 152,
      "б": 153,
      "в": 154,
      "г": 155,
      "д": 156,
      "е": 157,
      "ж": 158,
      "з": 159,
      "и": 160,
      "к": 161,
      "л": 162,
      "м": 163,
      "н": 164,
      "о": 165,
      "п": 166,
      "р": 167,
      "с": 168,
      "т": 169,
      "у": 170,
      "х": 171,
      "ц": 172,
      "ш": 173,
      "ъ": 174,
      "ы": 175,
      "ь": 176,
      "ю": 177,
      "я": 178,
      "є": 179,
      "א": 180,
      "ב": 181,
      "ג": 182,
      "ה": 183,
      "ו": 184,
      "ז": 185,
      "ח": 186,
      "י": 187,
      "ל": 188,
      "ם": 189,
      "מ": 190,
      "ן": 191,
      "נ": 192,
      "ס": 193,
      "ף": 194,
      "פ": 195,
      "צ": 196,
      "ר": 197,
      "ש": 198,
      "ת": 199,
      "ء": 200,
      "ا": 201,
      "ب": 202,
      "ة": 203,
      "ت": 204,
      "ث": 205,
      "ج": 206,
      "ح": 207,
      "خ": 208,
      "د": 209,
      "ذ": 210,
      "ر": 211,
      "س": 212,
      "ش": 213,
      "ص": 214,
      "ع": 215,
      "ف": 216,
      "ق": 217,
      "ك": 218,
      "ل": 219,
      "م": 220,
      "ن": 221,
      "ه": 222,
      "و": 223,
      "ي": 224,
      "ܐ": 225,
      "ܕ": 226,
      "ܗ": 227,
      "ܝ": 228,
      "ܠ": 229,
      "ܢ": 230,
      "ܬ": 231,
      "अ": 232,
      "ई": 233,
      "क": 234,
      "ग": 235,
      "ण": 236,
      "त": 237,
      "द": 238,
      "न": 239,
      "प": 240,
      "ब": 241,
      "म": 242,
      "य": 243,
      "र": 244,
      "ल": 245,
      "व": 246,
      "स": 247,
      "ह": 248,
      "ा": 249,
      "ि": 250,
      "আ": 251,
      "ল": 252,
      "হ": 253,
      "া": 254,
      "ਅ": 255,
      "ਲ": 256,
      "ਹ": 257,
      "ਾ": 258,
      "അ": 259,
      "ള": 260,
      "ഹ": 261,
      "ാ": 262,
      "ก": 263,
      "ค": 264,
      "ง": 265,
      "ช": 266,
      "ซ": 267,
      "ญ": 268,
      "ฐ": 269,
      "ณ": 270,
      "ด": 271,
      "ต": 272,
      "น": 273,
      "บ": 274,
      "ป": 275,
      "พ": 276,
      "ภ": 277,
      "ม": 278,
      "ย": 279,
      "ร": 280,
      "ล": 281,
      "ว": 282,
      "ศ": 283,
      "ษ": 284,
      "ส": 285,
      "ห": 286,
      "อ": 287,
      "ฮ": 288,
      "ะ": 289,
      "า": 290,
      "เ": 291,
      "แ": 292,
      "ไ": 293,
      "ა": 294,
      "ბ": 295,
      "გ": 296,
      "დ": 297,
      "ე": 298,
      "ვ": 299,
      "ზ": 300,
      "თ": 301,
      "ი": 302,
      "კ": 303,
      "ლ": 304,
      "მ": 305,
      "ნ": 306,
      "ო": 307,
      "პ": 308,
      "ჟ": 309,
      "რ": 310,
      "ს": 311,
      "ტ": 312,
      "უ": 313,
      "ფ": 314,
      "ქ": 315,
      "ღ": 316,
      "ყ": 317,
      "შ": 318,
      "ჩ": 319,
      "ც": 320,
      "ძ": 321,
      "წ": 322,
      "ჭ": 323,
      "ხ": 324,
      "ჯ": 325,
      "ჰ": 326,
      "ჱ": 327,
      "ჲ": 328,
      "ჳ": 329,
      "ჴ": 330,
      "ჵ": 331,
      "ჶ": 332,
      "ჷ": 333,
      "ჸ": 334,
      "ჹ": 335,
      "ჺ": 336,
      "჻": 337,
      "ᄃ": 338,
      "ᄅ": 339,
      "ᄇ": 340,
      "ᄋ": 341,
      "ᄌ": 342,
      "ᅡ": 343,
      "ᅢ": 344,
      "ᅦ": 345,
      "ᅧ": 346,
      "ᅩ": 347,
      "ᅮ": 348,
      "ᅵ": 349,
      "ᆨ": 350,
      "ᆫ": 351,
      "ᆯ": 352,
      "ᆸ": 353,
      "ᆼ": 354,
      "ᵻ": 355,
      "‐": 356,
      "‑": 357,
      "–": 358,
      "—": 359,
      "―": 360,
      "‘": 361,
      "’": 362,
      "“": 363,
      "”": 364,
      "„": 365,
      "†": 366,
      "‡": 367,
      "•": 368,
      "…": 369,
      "′": 370,
      "″": 371,
      "⁄": 372,
      "₣": 373,
      "₤": 374,
      "€": 375,
      "₹": 376,
      "⅓": 377,
      "⅔": 378,
      "→": 379,
      "−": 380,
      "≡": 381,
      "≤": 382,
      "①": 383,
      "☉": 384,
      "☫": 385,
      "♀": 386,
      "♭": 387,
      "♯": 388,
      "⚳": 389,
      "ⴀ": 390,
      "ⴂ": 391,
      "ⴃ": 392,
      "ⴈ": 393,
      "ⴌ": 394,
      "ⴕ": 395,
      "ⴟ": 396,
      "〈": 397,
      "〉": 398,
      "〜": 399,
      "あ": 400,
      "い": 401,
      "う": 402,
      "お": 403,
      "か": 404,
      "き": 405,
      "く": 406,
      "け": 407,
      "こ": 408,
      "さ": 409,
      "し": 410,
      "す": 411,
      "せ": 412,
      "た": 413,
      "ち": 414,
      "っ": 415,
      "つ": 416,
      "と": 417,
      "な": 418,
      "に": 419,
      "の": 420,
      "は": 421,
      "ひ": 422,
      "ふ": 423,
      "ほ": 424,
      "ま": 425,
      "み": 426,
      "め": 427,
      "も": 428,
      "ゃ": 429,
      "ゆ": 430,
      "ょ": 431,
      "ら": 432,
      "り": 433,
      "る": 434,
      "れ": 435,
      "わ": 436,
      "を": 437,
      "ん": 438,
      "ァ": 439,
      "ア": 440,
      "ィ": 441,
      "イ": 442,
      "ゥ": 443,
      "ウ": 444,
      "ェ": 445,
      "エ": 446,
      "ォ": 447,
      "オ": 448,
      "カ": 449,
      "キ": 450,
      "ク": 451,
      "ケ": 452,
      "コ": 453,
      "サ": 454,
      "シ": 455,
      "ス": 456,
      "セ": 457,
      "タ": 458,
      "チ": 459,
      "ッ": 460,
      "ツ": 461,
      "テ": 462,
      "ト": 463,
      "ナ": 464,
      "ニ": 465,
      "ネ": 466,
      "ノ": 467,
      "ハ": 468,
      "フ": 469,
      "ヘ": 470,
      "マ": 471,
      "ミ": 472,
      "ム": 473,
      "モ": 474,
      "ャ": 475,
      "ュ": 476,
      "ョ": 477,
      "ラ": 478,
      "リ": 479,
      "ル": 480,
      "レ": 481,
      "ロ": 482,
      "ン": 483,
      "・": 484,
      "ー": 485,
      "一": 486,
      "七": 487,
      "下": 488,
      "世": 489,
      "丙": 490,
      "中": 491,
      "主": 492,
      "乃": 493,
      "之": 494,
      "乙": 495,
      "九": 496,
      "二": 497,
      "云": 498,
      "人": 499,
      "今": 500,
      "付": 501,
      "作": 502,
      "侗": 503,
      "依": 504,
      "信": 505,
      "傳": 506,
      "儚": 507,
      "充": 508,
      "光": 509,
      "全": 510,
      "兵": 511,
      "其": 512,
      "具": 513,
      "円": 514,
      "再": 515,
      "出": 516,
      "判": 517,
      "前": 518,
      "剛": 519,
      "劇": 520,
      "劉": 521,
      "動": 522,
      "化": 523,
      "北": 524,
      "华": 525,
      "厂": 526,
      "去": 527,
      "古": 528,
      "可": 529,
      "台": 530,
      "史": 531,
      "同": 532,
      "名": 533,
      "君": 534,
      "吳": 535,
      "周": 536,
      "命": 537,
      "和": 538,
      "咲": 539,
      "善": 540,
      "四": 541,
      "國": 542,
      "園": 543,
      "圣": 544,
      "在": 545,
      "坂": 546,
      "堤": 547,
      "場": 548,
      "塘": 549,
      "夕": 550,
      "大": 551,
      "天": 552,
      "夫": 553,
      "女": 554,
      "妙": 555,
      "姚": 556,
      "子": 557,
      "孟": 558,
      "守": 559,
      "安": 560,
      "宋": 561,
      "完": 562,
      "宗": 563,
      "宝": 564,
      "宫": 565,
      "寝": 566,
      "寺": 567,
      "小": 568,
      "少": 569,
      "尾": 570,
      "山": 571,
      "岳": 572,
      "川": 573,
      "州": 574,
      "巳": 575,
      "市": 576,
      "師": 577,
      "平": 578,
      "广": 579,
      "庆": 580,
      "府": 581,
      "座": 582,
      "廬": 583,
      "建": 584,
      "式": 585,
      "張": 586,
      "彌": 587,
      "彩": 588,
      "彼": 589,
      "後": 590,
      "御": 591,
      "德": 592,
      "思": 593,
      "愛": 594,
      "憑": 595,
      "憶": 596,
      "應": 597,
      "懷": 598,
      "战": 599,
      "戦": 600,
      "扈": 601,
      "技": 602,
      "拉": 603,
      "拳": 604,
      "挑": 605,
      "揺": 606,
      "攻": 607,
      "放": 608,
      "政": 609,
      "散": 610,
      "斯": 611,
      "方": 612,
      "日": 613,
      "旦": 614,
      "旭": 615,
      "昌": 616,
      "明": 617,
      "星": 618,
      "春": 619,
      "晋": 620,
      "景": 621,
      "曦": 622,
      "月": 623,
      "望": 624,
      "未": 625,
      "本": 626,
      "李": 627,
      "村": 628,
      "杜": 629,
      "束": 630,
      "来": 631,
      "林": 632,
      "桜": 633,
      "梶": 634,
      "棘": 635,
      "椎": 636,
      "楊": 637,
      "楚": 638,
      "榮": 639,
      "橘": 640,
      "機": 641,
      "正": 642,
      "殻": 643,
      "殿": 644,
      "母": 645,
      "水": 646,
      "汉": 647,
      "沂": 648,
      "沙": 649,
      "河": 650,
      "泗": 651,
      "波": 652,
      "泣": 653,
      "洪": 654,
      "淹": 655,
      "清": 656,
      "湯": 657,
      "漢": 658,
      "澄": 659,
      "澤": 660,
      "火": 661,
      "灯": 662,
      "灵": 663,
      "灼": 664,
      "焼": 665,
      "熱": 666,
      "物": 667,
      "狐": 668,
      "狸": 669,
      "玄": 670,
      "王": 671,
      "玩": 672,
      "珂": 673,
      "珙": 674,
      "球": 675,
      "理": 676,
      "琦": 677,
      "琪": 678,
      "瓊": 679,
      "生": 680,
      "田": 681,
      "畢": 682,
      "番": 683,
      "瘡": 684,
      "白": 685,
      "皮": 686,
      "真": 687,
      "砲": 688,
      "礮": 689,
      "祈": 690,
      "神": 691,
      "祠": 692,
      "秋": 693,
      "空": 694,
      "立": 695,
      "精": 696,
      "約": 697,
      "絵": 698,
      "織": 699,
      "義": 700,
      "翠": 701,
      "者": 702,
      "耕": 703,
      "肖": 704,
      "胡": 705,
      "膀": 706,
      "臂": 707,
      "興": 708,
      "良": 709,
      "花": 710,
      "芳": 711,
      "芽": 712,
      "若": 713,
      "英": 714,
      "藕": 715,
      "藥": 716,
      "蘄": 717,
      "蘇": 718,
      "行": 719,
      "裁": 720,
      "規": 721,
      "覺": 722,
      "观": 723,
      "解": 724,
      "記": 725,
      "誓": 726,
      "誡": 727,
      "誰": 728,
      "謎": 729,
      "许": 730,
      "谭": 731,
      "豪": 732,
      "豫": 733,
      "費": 734,
      "贵": 735,
      "赤": 736,
      "趙": 737,
      "足": 738,
      "跡": 739,
      "転": 740,
      "辛": 741,
      "逆": 742,
      "遇": 743,
      "運": 744,
      "過": 745,
      "遠": 746,
      "選": 747,
      "邦": 748,
      "邱": 749,
      "部": 750,
      "郭": 751,
      "都": 752,
      "酈": 753,
      "里": 754,
      "野": 755,
      "金": 756,
      "銃": 757,
      "鋼": 758,
      "錄": 759,
      "錡": 760,
      "鍵": 761,
      "鐵": 762,
      "钱": 763,
      "铁": 764,
      "關": 765,
      "防": 766,
      "阿": 767,
      "陈": 768,
      "陳": 769,
      "陽": 770,
      "隊": 771,
      "階": 772,
      "集": 773,
      "雪": 774,
      "雲": 775,
      "霖": 776,
      "霹": 777,
      "靂": 778,
      "韓": 779,
      "願": 780,
      "顯": 781,
      "颜": 782,
      "马": 783,
      "高": 784,
      "龍": 785,
      "ﷲ": 786,
      "ﻋ": 787,
      "／": 788,
      "３": 789,
      "～": 790,
      "##i": 791,
      "##n": 792,
      "## ": 793,
      "##1": 794,
      "##9": 795,
      "##6": 796,
      "##,": 797,
      "##a": 798,
      "##f": 799,
      "##t": 800,
      "##e": 801,
      "##r": 802,
      "##d": 803,
      "##g": 804,
      "##s": 805,
      "##o": 806,
      "##p": 807,
      "##y": 808,
      "##c": 809,
      "##h": 810,
      "##l": 811,
      "##v": 812,
      "##x": 813,
      "##m": 814,
      "##.": 815,
      "##b": 816,
      "##w": 817,
      "##u": 818,
      "##'": 819,
      "##(": 820,
      "##)": 821,
      "##@": 822,
      "##-": 823,
      "##j": 824,
      "##7": 825,
      "##k": 826,
      "##\"": 827,
      "##8": 828,
      "##2": 829,
      "##4": 830,
      "##5": 831,
      "##3": 832,
      "##0": 833,
      "##−": 834,
      "##=": 835,
      "##z": 836,
      "##q": 837,
      "##;": 838,
      "##–": 839,
      "##%": 840,
      "##!": 841,
      "##—": 842,
      "##&": 843,
      "##ჲ": 844,
      "##ი": 845,
      "##ქ": 846,
      "##რ": 847,
      "##ს": 848,
      "##ტ": 849,
      "##ჱ": 850,
      "##~": 851,
      "##ე": 852,
      "##[": 853,
      "##]": 854,
      "##:": 855,
      "##ʁ": 856,
      "##ʃ": 857,
      "##ə": 858,
      "##ˈ": 859,
      "##ح": 860,
      "##ص": 861,
      "##ن": 862,
      "##ا": 863,
      "##ل": 864,
      "##ف": 865,
      "##ر": 866,
      "##س": 867,
      "##ك": 868,
      "##د": 869,
      "##°": 870,
      "##+": 871,
      "##/": 872,
      "##’": 873,
      "##ː": 874,
      "##ᵻ": 875,
      "##ʊ": 876,
      "##σ": 877,
      "##τ": 878,
      "##ι": 879,
      "##β": 880,
      "##ث": 881,
      "##م": 882,
      "##£": 883,
      "##‘": 884,
      "##?": 885,
      "##$": 886,
      "##…": 887,
      "##æ": 888,
      "##高": 889,
      "##円": 890,
      "##寺": 891,
      "##さ": 892,
      "##ゆ": 893,
      "##り": 894,
      "##₤": 895,
      "##გ": 896,
      "##狐": 897,
      "##狸": 898,
      "##精": 899,
      "##×": 900,
      "##α": 901,
      "##ა": 902,
      "##თ": 903,
      "##ო": 904,
      "##ส": 905,
      "##พ": 906,
      "##ร": 907,
      "##ง": 908,
      "##ก": 909,
      "##ล": 910,
      "##ย": 911,
      "##า": 912,
      "##ณ": 913,
      "##ม": 914,
      "##ต": 915,
      "##เ": 916,
      "##ป": 917,
      "##บ": 918,
      "##ø": 919,
      "##‑": 920,
      "###": 921,
      "##მ": 922,
      "##ვ": 923,
      "##უ": 924,
      "##ლ": 925,
      "##ნ": 926,
      "##岳": 927,
      "##霖": 928,
      "##珂": 929,
      "##ʻ": 930,
      "##劉": 931,
      "##光": 932,
      "##世": 933,
      "##王": 934,
      "##明": 935,
      "##“": 936,
      "##”": 937,
      "##²": 938,
      "##梶": 939,
      "##み": 940,
      "##つ": 941,
      "##を": 942,
      "##テ": 943,
      "##イ": 944,
      "##ル": 945,
      "##ス": 946,
      "##オ": 947,
      "##フ": 948,
      "##ィ": 949,
      "##ニ": 950,
      "##ー": 951,
      "##立": 952,
      "##ち": 953,
      "##技": 954,
      "##座": 955,
      "##寝": 956,
      "##白": 957,
      "##兵": 958,
      "##主": 959,
      "##義": 960,
      "##⅓": 961,
      "##₹": 962,
      "##′": 963,
      "##″": 964,
      "##⁄": 965,
      "##九": 966,
      "##尾": 967,
      "##の": 968,
      "##→": 969,
      "##γ": 970,
      "##☉": 971,
      "##^": 972,
      "##·": 973,
      "##☫": 974,
      "##আ": 975,
      "##ল": 976,
      "##া": 977,
      "##হ": 978,
      "##א": 979,
      "##ל": 980,
      "##ה": 981,
      "##µ": 982,
      "##ł": 983,
      "##´": 984,
      "##с": 985,
      "##о": 986,
      "##в": 987,
      "##е": 988,
      "##т": 989,
      "##к": 990,
      "##и": 991,
      "##ю": 992,
      "##з": 993,
      "##ɡ": 994,
      "##ɑ": 995,
      "##ɒ": 996,
      "##μ": 997,
      "##ˌ": 998,
      "##θ": 999,
      "##ɔ": 1000,
      "##κ": 1001,
      "##ο": 1002,
      "##ρ": 1003,
      "##υ": 1004,
      "##ς": 1005,
      "##ח": 1006,
      "##י": 1007,
      "##פ": 1008,
      "##ħ": 1009,
      "##χ": 1010,
      "##ي": 1011,
      "##下": 1012,
      "##村": 1013,
      "##陽": 1014,
      "##子": 1015,
      "##大": 1016,
      "##空": 1017,
      "##ひ": 1018,
      "##は": 1019,
      "##肖": 1020,
      "##建": 1021,
      "##华": 1022,
      "##许": 1023,
      "##其": 1024,
      "##琪": 1025,
      "##ɪ": 1026,
      "##ب": 1027,
      "##ت": 1028,
      "##ش": 1029,
      "##خ": 1030,
      "##¢": 1031,
      "##戦": 1032,
      "##場": 1033,
      "##ウ": 1034,
      "##ァ": 1035,
      "##キ": 1036,
      "##ュ": 1037,
      "##リ": 1038,
      "##ア": 1039,
      "##３": 1040,
      "##誰": 1041,
      "##か": 1042,
      "##た": 1043,
      "##め": 1044,
      "##銃": 1045,
      "##瘡": 1046,
      "##λ": 1047,
      "##წ": 1048,
      "##張": 1049,
      "##榮": 1050,
      "##ν": 1051,
      "##吳": 1052,
      "##曦": 1053,
      "##安": 1054,
      "##丙": 1055,
      "##§": 1056,
      "##đ": 1057,
      "##德": 1058,
      "##陳": 1059,
      "##規": 1060,
      "##δ": 1061,
      "##η": 1062,
      "##º": 1063,
      "##ᄌ": 1064,
      "##ᅦ": 1065,
      "##ᄃ": 1066,
      "##ᅩ": 1067,
      "##ᆨ": 1068,
      "##ᄅ": 1069,
      "##ᅵ": 1070,
      "##ᆸ": 1071,
      "##ᄇ": 1072,
      "##ᅧ": 1073,
      "##ᆼ": 1074,
      "##ᄋ": 1075,
      "##ᆫ": 1076,
      "##ᅢ": 1077,
      "##ᅮ": 1078,
      "##應": 1079,
      "##天": 1080,
      "##府": 1081,
      "##行": 1082,
      "##在": 1083,
      "##ჹ": 1084,
      "##ɢ": 1085,
      "##旭": 1086,
      "##日": 1087,
      "##玩": 1088,
      "##具": 1089,
      "##厂": 1090,
      "##選": 1091,
      "##ق": 1092,
      "##ع": 1093,
      "##ه": 1094,
      "##邱": 1095,
      "##庆": 1096,
      "##河": 1097,
      "##四": 1098,
      "##式": 1099,
      "##拳": 1100,
      "##も": 1101,
      "##し": 1102,
      "##君": 1103,
      "##願": 1104,
      "##う": 1105,
      "##な": 1106,
      "##ら": 1107,
      "##*": 1108,
      "##李": 1109,
      "##春": 1110,
      "##ზ": 1111,
      "##ხ": 1112,
      "##ჯ": 1113,
      "##♯": 1114,
      "##±": 1115,
      "##\\": 1116,
      "##ש": 1117,
      "##ב": 1118,
      "##ת": 1119,
      "##ז": 1120,
      "##ס": 1121,
      "##ן": 1122,
      "##ר": 1123,
      "##ם": 1124,
      "##ı": 1125,
      "##क": 1126,
      "##ल": 1127,
      "##य": 1128,
      "##ा": 1129,
      "##ण": 1130,
      "##स": 1131,
      "##न": 1132,
      "##द": 1133,
      "##र": 1134,
      "##व": 1135,
      "##ह": 1136,
      "##ि": 1137,
      "##म": 1138,
      "##त": 1139,
      "##प": 1140,
      "##ग": 1141,
      "##>": 1142,
      "##р": 1143,
      "##а": 1144,
      "##н": 1145,
      "##ы": 1146,
      "##ו": 1147,
      "##ף": 1148,
      "##و": 1149,
      "##<": 1150,
      "##椎": 1151,
      "##名": 1152,
      "##ま": 1153,
      "##こ": 1154,
      "##と": 1155,
      "##დ": 1156,
      "##კ": 1157,
      "##ჟ": 1158,
      "##ფ": 1159,
      "##ღ": 1160,
      "##ყ": 1161,
      "##ც": 1162,
      "##`": 1163,
      "##я": 1164,
      "##б": 1165,
      "##л": 1166,
      "##у": 1167,
      "##†": 1168,
      "##陈": 1169,
      "##星": 1170,
      "##汉": 1171,
      "##漢": 1172,
      "##≤": 1173,
      "##€": 1174,
      "##♭": 1175,
      "##ɜ": 1176,
      "##¡": 1177,
      "##宗": 1178,
      "##澤": 1179,
      "##覺": 1180,
      "##完": 1181,
      "##颜": 1182,
      "##望": 1183,
      "##洪": 1184,
      "##州": 1185,
      "##ჷ": 1186,
      "##政": 1187,
      "##二": 1188,
      "##അ": 1189,
      "##ള": 1190,
      "##ാ": 1191,
      "##ഹ": 1192,
      "##¥": 1193,
      "##花": 1194,
      "##園": 1195,
      "##お": 1196,
      "##þ": 1197,
      "##ð": 1198,
      "##す": 1199,
      "##ᅡ": 1200,
      "##ᆯ": 1201,
      "##}": 1202,
      "##⅔": 1203,
      "##钱": 1204,
      "##彩": 1205,
      "##ɛ": 1206,
      "##ჵ": 1207,
      "##ศ": 1208,
      "##ญ": 1209,
      "##แ": 1210,
      "##ว": 1211,
      "##龍": 1212,
      "##神": 1213,
      "##宋": 1214,
      "##中": 1215,
      "##興": 1216,
      "##傳": 1217,
      "##同": 1218,
      "##侗": 1219,
      "##〈": 1220,
      "##⚳": 1221,
      "##〉": 1222,
      "##♀": 1223,
      "##①": 1224,
      "##ɾ": 1225,
      "##ʲ": 1226,
      "##あ": 1227,
      "##い": 1228,
      "##อ": 1229,
      "##ฮ": 1230,
      "##ハ": 1231,
      "##ロ": 1232,
      "##ト": 1233,
      "##・": 1234,
      "##ヘ": 1235,
      "##セ": 1236,
      "##ܐ": 1237,
      "##ܕ": 1238,
      "##ܝ": 1239,
      "##ܢ": 1240,
      "##ܬ": 1241,
      "##ذ": 1242,
      "##ة": 1243,
      "##ω": 1244,
      "##誡": 1245,
      "##憑": 1246,
      "##き": 1247,
      "##付": 1248,
      "##善": 1249,
      "##野": 1250,
      "##攻": 1251,
      "##殻": 1252,
      "##機": 1253,
      "##動": 1254,
      "##隊": 1255,
      "##灼": 1256,
      "##熱": 1257,
      "##都": 1258,
      "##市": 1259,
      "##坂": 1260,
      "##本": 1261,
      "##耕": 1262,
      "##作": 1263,
      "##ふ": 1264,
      "##ห": 1265,
      "##ไ": 1266,
      "##ช": 1267,
      "##ซ": 1268,
      "##³": 1269,
      "##わ": 1270,
      "##ß": 1271,
      "##½": 1272,
      "##‡": 1273,
      "##水": 1274,
      "##淹": 1275,
      "##金": 1276,
      "##山": 1277,
      "##せ": 1278,
      "##ん": 1279,
      "##織": 1280,
      "##部": 1281,
      "##里": 1282,
      "##沙": 1283,
      "##ब": 1284,
      "##ई": 1285,
      "##ナ": 1286,
      "##ミ": 1287,
      "##ʿ": 1288,
      "##œ": 1289,
      "##מ": 1290,
      "##צ": 1291,
      "##ჺ": 1292,
      "##ʕ": 1293,
      "##ﻋ": 1294,
      "##ܠ": 1295,
      "##ܗ": 1296,
      "##ʼ": 1297,
      "##ਅ": 1298,
      "##ਲ": 1299,
      "##ਹ": 1300,
      "##ਾ": 1301,
      "##今": 1302,
      "##っ": 1303,
      "##七": 1304,
      "##國": 1305,
      "##秋": 1306,
      "##後": 1307,
      "##集": 1308,
      "##一": 1309,
      "##番": 1310,
      "##宝": 1311,
      "##物": 1312,
      "##〜": 1313,
      "##铁": 1314,
      "##臂": 1315,
      "##膀": 1316,
      "##ノ": 1317,
      "##ⴃ": 1318,
      "##ⴀ": 1319,
      "##～": 1320,
      "##儚": 1321,
      "##雪": 1322,
      "##小": 1323,
      "##祈": 1324,
      "##古": 1325,
      "##夕": 1326,
      "##焼": 1327,
      "##け": 1328,
      "##記": 1329,
      "##憶": 1330,
      "##棘": 1331,
      "##揺": 1332,
      "##ء": 1333,
      "##ン": 1334,
      "##ク": 1335,
      "##タ": 1336,
      "##ム": 1337,
      "##チ": 1338,
      "##ェ": 1339,
      "##約": 1340,
      "##束": 1341,
      "##守": 1342,
      "##過": 1343,
      "##去": 1344,
      "##思": 1345,
      "##出": 1346,
      "##ラ": 1347,
      "##ォ": 1348,
      "##ゥ": 1349,
      "##玄": 1350,
      "##妙": 1351,
      "##观": 1352,
      "##る": 1353,
      "##劇": 1354,
      "##ッ": 1355,
      "##に": 1356,
      "##ゃ": 1357,
      "##ჸ": 1358,
      "##運": 1359,
      "##命": 1360,
      "##解": 1361,
      "##放": 1362,
      "##х": 1363,
      "##階": 1364,
      "##エ": 1365,
      "##ɽ": 1366,
      "##ג": 1367,
      "##נ": 1368,
      "##レ": 1369,
      "##ძ": 1370,
      "##პ": 1371,
      "##―": 1372,
      "##ε": 1373,
      "##火": 1374,
      "##礮": 1375,
      "##砲": 1376,
      "##林": 1377,
      "##之": 1378,
      "##平": 1379,
      "##霹": 1380,
      "##靂": 1381,
      "##球": 1382,
      "##誓": 1383,
      "##赤": 1384,
      "##乙": 1385,
      "##女": 1386,
      "##蘇": 1387,
      "##師": 1388,
      "##旦": 1389,
      "##く": 1390,
      "##コ": 1391,
      "##カ": 1392,
      "##ネ": 1393,
      "##シ": 1394,
      "##ョ": 1395,
      "##჻": 1396,
      "##ჴ": 1397,
      "##マ": 1398,
      "##未": 1399,
      "##来": 1400,
      "##挑": 1401,
      "##者": 1402,
      "##ɫ": 1403,
      "##ʾ": 1404,
      "##堤": 1405,
      "##п": 1406,
      "##г": 1407,
      "##м": 1408,
      "##ξ": 1409,
      "##π": 1410,
      "##ц": 1411,
      "##ъ": 1412,
      "##„": 1413,
      "##д": 1414,
      "##ж": 1415,
      "##周": 1416,
      "##前": 1417,
      "##田": 1418,
      "##ɐ": 1419,
      "##邦": 1420,
      "##昌": 1421,
      "##ჰ": 1422,
      "##北": 1423,
      "##れ": 1424,
      "##若": 1425,
      "##生": 1426,
      "##桜": 1427,
      "##ャ": 1428,
      "##モ": 1429,
      "##橘": 1430,
      "##芽": 1431,
      "##依": 1432,
      "##謎": 1433,
      "##少": 1434,
      "##散": 1435,
      "##關": 1436,
      "##趙": 1437,
      "##方": 1438,
      "##蘄": 1439,
      "##全": 1440,
      "##景": 1441,
      "##灵": 1442,
      "##宫": 1443,
      "##|": 1444,
      "##马": 1445,
      "##良": 1446,
      "##防": 1447,
      "##御": 1448,
      "##战": 1449,
      "##ჭ": 1450,
      "##ょ": 1451,
      "##史": 1452,
      "##彌": 1453,
      "##遠": 1454,
      "##孟": 1455,
      "##扈": 1456,
      "##再": 1457,
      "##鐵": 1458,
      "##辛": 1459,
      "##巳": 1460,
      "##泣": 1461,
      "##錄": 1462,
      "##皮": 1463,
      "##ケ": 1464,
      "##郭": 1465,
      "##藥": 1466,
      "##斯": 1467,
      "##波": 1468,
      "##信": 1469,
      "##ツ": 1470,
      "##湯": 1471,
      "##懷": 1472,
      "##顯": 1473,
      "##ʔ": 1474,
      "##豪": 1475,
      "##錡": 1476,
      "##ш": 1477,
      "##サ": 1478,
      "##圣": 1479,
      "##母": 1480,
      "##殿": 1481,
      "##晋": 1482,
      "##祠": 1483,
      "##अ": 1484,
      "##廬": 1485,
      "##藕": 1486,
      "##塘": 1487,
      "##楊": 1488,
      "##沂": 1489,
      "##酈": 1490,
      "##瓊": 1491,
      "##珙": 1492,
      "##ჳ": 1493,
      "##韓": 1494,
      "##琦": 1495,
      "##¿": 1496,
      "##_": 1497,
      "##ⴂ": 1498,
      "##ⴌ": 1499,
      "##豫": 1500,
      "##可": 1501,
      "##愛": 1502,
      "##理": 1503,
      "##絵": 1504,
      "##ﷲ": 1505,
      "##雲": 1506,
      "##彼": 1507,
      "##月": 1508,
      "##澄": 1509,
      "##乃": 1510,
      "##和": 1511,
      "##川": 1512,
      "##／": 1513,
      "##ʒ": 1514,
      "##‐": 1515,
      "##ψ": 1516,
      "##灯": 1517,
      "##咲": 1518,
      "##逆": 1519,
      "##転": 1520,
      "##裁": 1521,
      "##判": 1522,
      "##ج": 1523,
      "##谭": 1524,
      "##正": 1525,
      "##芳": 1526,
      "##台": 1527,
      "##剛": 1528,
      "##ะ": 1529,
      "##น": 1530,
      "##阿": 1531,
      "##拉": 1532,
      "##真": 1533,
      "##胡": 1534,
      "##广": 1535,
      "##足": 1536,
      "##跡": 1537,
      "##費": 1538,
      "##畢": 1539,
      "##遇": 1540,
      "##泗": 1541,
      "##楚": 1542,
      "##化": 1543,
      "##ბ": 1544,
      "##შ": 1545,
      "##ჩ": 1546,
      "##鋼": 1547,
      "##₣": 1548,
      "##ⴟ": 1549,
      "##ⴈ": 1550,
      "##ⴕ": 1551,
      "##ʋ": 1552,
      "##ɳ": 1553,
      "##≡": 1554,
      "##ほ": 1555,
      "##ภ": 1556,
      "##ด": 1557,
      "##ค": 1558,
      "##ษ": 1559,
      "##ฐ": 1560,
      "##ჶ": 1561,
      "##φ": 1562,
      "##є": 1563,
      "##杜": 1564,
      "##充": 1565,
      "##贵": 1566,
      "##姚": 1567,
      "##夫": 1568,
      "##人": 1569,
      "##翠": 1570,
      "##英": 1571,
      "##云": 1572,
      "##清": 1573,
      "##ь": 1574,
      "##鍵": 1575,
      "##•": 1576,
      "##e ": 1577,
      "## t": 1578,
      "##s ": 1579,
      "##in": 1580,
      "## th": 1581,
      "##d ": 1582,
      "##er": 1583,
      "##an": 1584,
      "## the ": 1585,
      "##on": 1586,
      "##t ": 1587,
      "##, ": 1588,
      "##y ": 1589,
      "##or": 1590,
      "##en": 1591,
      "##ar": 1592,
      "##al": 1593,
      "##at": 1594,
      "##ed ": 1595,
      "##re": 1596,
      "##of": 1597,
      "##. ": 1598,
      "##it": 1599,
      "##a ": 1600,
      "##o ": 1601,
      "##st": 1602,
      "##ing": 1603,
      "##er ": 1604,
      "##and ": 1605,
      "##on ": 1606,
      "##ou": 1607,
      "##h ": 1608,
      "##ic": 1609,
      "##in ": 1610,
      "##ro": 1611,
      "##as ": 1612,
      "##of ": 1613,
      "##es ": 1614,
      "##ing ": 1615,
      "##el": 1616,
      "##is": 1617,
      "##il": 1618,
      "##th": 1619,
      "##= ": 1620,
      "##ac": 1621,
      "##as": 1622,
      "## , ": 1623,
      "##am": 1624,
      "## to ": 1625,
      "##ed": 1626,
      "##is ": 1627,
      "##es": 1628,
      "##for": 1629,
      "##al ": 1630,
      "##ur": 1631,
      "##om": 1632,
      "##ion ": 1633,
      "##an ": 1634,
      "##\" ": 1635,
      "##ec": 1636,
      "##ol": 1637,
      "##@ ": 1638,
      "##ir": 1639,
      "##ch": 1640,
      "##m ": 1641,
      "##at ": 1642,
      "##was ": 1643,
      "##wh": 1644,
      "##un": 1645,
      "##ow": 1646,
      "##ad": 1647,
      "##iv": 1648,
      "##of the ": 1649,
      "##en ": 1650,
      "##ig": 1651,
      "##ent": 1652,
      "##ly ": 1653,
      "##@-": 1654,
      "##= = ": 1655,
      "##em": 1656,
      "##im": 1657,
      "##@-@ ": 1658,
      "##pl": 1659,
      "##et": 1660,
      "##wit": 1661,
      "##us": 1662,
      "##ag": 1663,
      "##id": 1664,
      "##.  ": 1665,
      "##and": 1666,
      "##ion": 1667,
      "##con": 1668,
      "##ev": 1669,
      "##sh": 1670,
      "##k ": 1671,
      "##l ": 1672,
      "##os": 1673,
      "##'s ": 1674,
      "##ap": 1675,
      "##in the ": 1676,
      "##su": 1677,
      "##le": 1678,
      "##ha": 1679,
      "##com": 1680,
      "##ent ": 1681,
      "##( ": 1682,
      "##ere ": 1683,
      "##. the ": 1684,
      "##ov": 1685,
      "##n ": 1686,
      "##op": 1687,
      "##it ": 1688,
      "##be": 1689,
      "##19": 1690,
      "##ab": 1691,
      "##s , ": 1692,
      "##ri": 1693,
      "##0 ": 1694,
      "##pro": 1695,
      "##le ": 1696,
      "##ear": 1697,
      "##ul": 1698,
      "##oun": 1699,
      "##ce ": 1700,
      "##ot": 1701,
      "##by ": 1702,
      "## that ": 1703,
      "##bu": 1704,
      "##ex": 1705,
      "##int": 1706,
      "##with ": 1707,
      "##the ": 1708,
      "##fro": 1709,
      "##) ": 1710,
      "##for ": 1711,
      "##di": 1712,
      "## the": 1713,
      "##cl": 1714,
      "##sp": 1715,
      "##ation ": 1716,
      "##he ": 1717,
      "##or ": 1718,
      "##i ": 1719,
      "##ers ": 1720,
      "##his ": 1721,
      "##se": 1722,
      "##ra": 1723,
      "##oc": 1724,
      "## to": 1725,
      "##e , ": 1726,
      "##ma": 1727,
      "##th ": 1728,
      "##ic ": 1729,
      "##, the ": 1730,
      "##20": 1731,
      "##de": 1732,
      "##res": 1733,
      "##par": 1734,
      "##were ": 1735,
      "##li": 1736,
      "##ew": 1737,
      "##ong": 1738,
      "##uc": 1739,
      "##rec": 1740,
      "##e t": 1741,
      "##qu": 1742,
      "##ies ": 1743,
      "##per": 1744,
      "##igh": 1745,
      "##ect": 1746,
      "##av": 1747,
      "##ay": 1748,
      "##od": 1749,
      "##ed the ": 1750,
      "##str": 1751,
      "##our": 1752,
      "##um": 1753,
      "##af": 1754,
      "##all": 1755,
      "##p ": 1756,
      "##ar ": 1757,
      "##ed to ": 1758,
      "##est": 1759,
      "##oug": 1760,
      "##ity ": 1761,
      "##ay ": 1762,
      "##ate ": 1763,
      "##gr": 1764,
      "##ch ": 1765,
      "##ing the ": 1766,
      "##br": 1767,
      "##from ": 1768,
      "##ot ": 1769,
      "##act": 1770,
      "##ir ": 1771,
      "##one ": 1772,
      "##ation": 1773,
      "##are ": 1774,
      "##bl": 1775,
      "##whic": 1776,
      "##ive ": 1777,
      "##att": 1778,
      "##at the ": 1779,
      "##wor": 1780,
      "##if": 1781,
      "##ut": 1782,
      " = = ": 1783,
      "##1 ": 1784,
      "##st ": 1785,
      "##man": 1786,
      "##fir": 1787,
      "##ist": 1788,
      "##ame ": 1789,
      "##2 ": 1790,
      "##oth": 1791,
      "##ud": 1792,
      "##por": 1793,
      "##with": 1794,
      "##5 ": 1795,
      "##had ": 1796,
      "##be ": 1797,
      "##s . ": 1798,
      "##ill": 1799,
      "##est ": 1800,
      "##ant": 1801,
      "## to the ": 1802,
      "##which ": 1803,
      "##ld ": 1804,
      "##her ": 1805,
      "##ated ": 1806,
      "##all ": 1807,
      "##ak": 1808,
      "##on the ": 1809,
      "##mar": 1810,
      "##ally ": 1811,
      "##sc": 1812,
      "##ber ": 1813,
      "##we": 1814,
      "##au": 1815,
      "##ang": 1816,
      "##so ": 1817,
      "##3 ": 1818,
      "##its ": 1819,
      "##end": 1820,
      "##ass": 1821,
      "##e of ": 1822,
      "##ter ": 1823,
      "##and the ": 1824,
      "##hav": 1825,
      "##pt": 1826,
      "##cont": 1827,
      "##s of ": 1828,
      "##s and ": 1829,
      "##fl": 1830,
      "##4 ": 1831,
      "##ed by ": 1832,
      "##comm": 1833,
      "##ord": 1834,
      "##200": 1835,
      "##ia ": 1836,
      "##ain": 1837,
      "##ser": 1838,
      "##6 ": 1839,
      "##et ": 1840,
      "##, and ": 1841,
      "##pr": 1842,
      "##ed in ": 1843,
      "##pos": 1844,
      "##ary ": 1845,
      "##ong ": 1846,
      "##f ": 1847,
      "## this ": 1848,
      "## tr": 1849,
      "##bo": 1850,
      "##over": 1851,
      "##el ": 1852,
      "##ew ": 1853,
      "##ine ": 1854,
      "##out ": 1855,
      "##rit": 1856,
      "##– ": 1857,
      "##not ": 1858,
      "##by": 1859,
      "## their ": 1860,
      "##8 ": 1861,
      "##ical ": 1862,
      "##car": 1863,
      "##ess": 1864,
      "##mor": 1865,
      "##ers": 1866,
      "##for the ": 1867,
      "##pres": 1868,
      "##first ": 1869,
      "##other ": 1870,
      "##e the ": 1871,
      "##also ": 1872,
      "##but ": 1873,
      "##ould ": 1874,
      "##og": 1875,
      "##ad ": 1876,
      "##fe": 1877,
      "##vi": 1878,
      "##as the ": 1879,
      "##aw": 1880,
      "##from": 1881,
      "##7 ": 1882,
      "##own ": 1883,
      "##des": 1884,
      "##e . ": 1885,
      "##dis": 1886,
      "##am ": 1887,
      "##wo ": 1888,
      "## they ": 1889,
      "##po": 1890,
      "##ence ": 1891,
      "##low": 1892,
      "##ish": 1893,
      "##fin": 1894,
      " the ": 1895,
      "##: ": 1896,
      "##us ": 1897,
      "##bec": 1898,
      "##er , ": 1899,
      "##pre": 1900,
      "##ph": 1901,
      "##ack": 1902,
      "##ish ": 1903,
      "##ard": 1904,
      "##have ": 1905,
      "##= =  ": 1906,
      "##; ": 1907,
      "##si": 1908,
      "##out": 1909,
      "##eng": 1910,
      "##.@ ": 1911,
      "##@.@ ": 1912,
      "##ast": 1913,
      "##form": 1914,
      "##und": 1915,
      "##ard ": 1916,
      "##ast ": 1917,
      "##year": 1918,
      "##ough": 1919,
      "##cre": 1920,
      "##00 ": 1921,
      "##has ": 1922,
      "##nor": 1923,
      "##land ": 1924,
      "##fr": 1925,
      "##col": 1926,
      "##port": 1927,
      "##ost ": 1928,
      "##been ": 1929,
      "##ial ": 1930,
      "##il ": 1931,
      "##he": 1932,
      "##ight ": 1933,
      "##e to ": 1934,
      "##from the ": 1935,
      "##char": 1936,
      "##=  ": 1937,
      "##ian ": 1938,
      "##ter": 1939,
      "##y , ": 1940,
      "##9 ": 1941,
      "##min": 1942,
      "##clud": 1943,
      "##who ": 1944,
      "##lat": 1945,
      "##es , ": 1946,
      "##shi": 1947,
      "##by the ": 1948,
      "##som": 1949,
      "##cent": 1950,
      "##201": 1951,
      "##ment ": 1952,
      "##uct": 1953,
      "##18": 1954,
      "##play": 1955,
      "##dur": 1956,
      "## , and ": 1957,
      "##e th": 1958,
      "##ound ": 1959,
      "##ff": 1960,
      "##od ": 1961,
      "##ell": 1962,
      "##with the ": 1963,
      "##ach": 1964,
      "##ric": 1965,
      "##dec": 1966,
      "##she ": 1967,
      "##ance ": 1968,
      "##sec": 1969,
      "##ely ": 1970,
      "##ind": 1971,
      "##in 19": 1972,
      "##ack ": 1973,
      "##jo": 1974,
      "##,@ ": 1975,
      "##@,@ ": 1976,
      "##ep": 1977,
      "##new ": 1978,
      "##pu": 1979,
      "##includ": 1980,
      "##iz": 1981,
      "##off": 1982,
      "##able ": 1983,
      "##as a ": 1984,
      "## two ": 1985,
      "##sou": 1986,
      "##pe": 1987,
      "##age ": 1988,
      "##' ": 1989,
      "##ens": 1990,
      "##ign": 1991,
      "##after ": 1992,
      "##inter": 1993,
      "##ous ": 1994,
      "##sid": 1995,
      "##ath": 1996,
      "##ure ": 1997,
      "##comp": 1998,
      "##id ": 1999,
      "##gu": 2000,
      "##mus": 2001,
      "## tim": 2002,
      "##ann": 2003,
      "##ough ": 2004,
      "##art": 2005,
      "##ow ": 2006,
      "##mon": 2007,
      "##ern ": 2008,
      "##man ": 2009,
      "##ber": 2010,
      "##ound": 2011,
      "##ory ": 2012,
      "##ain ": 2013,
      "##kn": 2014,
      "##ge ": 2015,
      "##ember ": 2016,
      "##ant ": 2017,
      "##coun": 2018,
      "##me": 2019,
      "##ed a ": 2020,
      "##our ": 2021,
      "##part": 2022,
      "##reg": 2023,
      "##up": 2024,
      "##ever": 2025,
      "##ne": 2026,
      "##ell ": 2027,
      "##= = =  ": 2028,
      "##most ": 2029,
      "##whil": 2030,
      "##gen": 2031,
      "##ous": 2032,
      "##ions ": 2033,
      "##co": 2034,
      "##ke ": 2035,
      "##ade ": 2036,
      "##bet": 2037,
      "##ree ": 2038,
      "##ents ": 2039,
      "##would ": 2040,
      "##app": 2041,
      "##ret": 2042,
      "##row": 2043,
      "##fil": 2044,
      "##ste": 2045,
      " = = = ": 2046,
      "##x ": 2047,
      "##hi": 2048,
      "##stat": 2049,
      "##ist ": 2050,
      "##pol": 2051,
      "##fol": 2052,
      "##ill ": 2053,
      "##king ": 2054,
      "##a , ": 2055,
      "##lar": 2056,
      "##sy": 2057,
      "##anc": 2058,
      "##ese ": 2059,
      "##dr": 2060,
      "##ite ": 2061,
      "##ob": 2062,
      "##s to ": 2063,
      "##. he ": 2064,
      "##ict": 2065,
      "##serv": 2066,
      "##a s": 2067,
      "##o the ": 2068,
      "##b ": 2069,
      "## that the ": 2070,
      "##urn": 2071,
      "##aus": 2072,
      "##mov": 2073,
      "##ition ": 2074,
      "##. \" ": 2075,
      "##) , ": 2076,
      "##ice ": 2077,
      "##tr": 2078,
      "##seas": 2079,
      "##bas": 2080,
      "##writ": 2081,
      "##um ": 2082,
      "##publ": 2083,
      "##spec": 2084,
      "##but": 2085,
      "##ited ": 2086,
      "##prod": 2087,
      "##when ": 2088,
      "##ver": 2089,
      "##it was ": 2090,
      "##ess ": 2091,
      "##a t": 2092,
      "##gre": 2093,
      "##ations ": 2094,
      "##betwe": 2095,
      "##. in ": 2096,
      "##air": 2097,
      "##stor": 2098,
      "##only ": 2099,
      "##acc": 2100,
      "##cap": 2101,
      "##follow": 2102,
      "##son ": 2103,
      "##game ": 2104,
      "##ight": 2105,
      "##\" , ": 2106,
      "##ing to ": 2107,
      "##beg": 2108,
      "##over ": 2109,
      "##ed that ": 2110,
      "##more ": 2111,
      "##own": 2112,
      "##hel": 2113,
      "##num": 2114,
      "##end ": 2115,
      "## thr": 2116,
      "##go": 2117,
      "##loc": 2118,
      "##eric": 2119,
      "##may ": 2120,
      "##ue ": 2121,
      "##plac": 2122,
      "##ed , ": 2123,
      "##how": 2124,
      "##prov": 2125,
      "##ros": 2126,
      "##amp": 2127,
      "##ult": 2128,
      "##dev": 2129,
      "##old ": 2130,
      "##rele": 2131,
      "##g ": 2132,
      "##u ": 2133,
      "##s in ": 2134,
      "##secon": 2135,
      "##t of ": 2136,
      "##sur": 2137,
      "##not": 2138,
      "##sub": 2139,
      "##sch": 2140,
      "##lo": 2141,
      "##ey ": 2142,
      "##cor": 2143,
      "##her": 2144,
      "##mis": 2145,
      "##ok": 2146,
      "##nation": 2147,
      "##ly": 2148,
      "##enc": 2149,
      "##where ": 2150,
      "##ach ": 2151,
      "##up ": 2152,
      "##nam": 2153,
      "##sel": 2154,
      "##sup": 2155,
      "##season ": 2156,
      "##releas": 2157,
      "##fi": 2158,
      "##e and ": 2159,
      "##res ": 2160,
      "##ok ": 2161,
      "##mat": 2162,
      "##arr": 2163,
      "##while ": 2164,
      "##olog": 2165,
      "##ust ": 2166,
      "##om ": 2167,
      "##arm": 2168,
      "##rop": 2169,
      "##ft ": 2170,
      "##du": 2171,
      "##s were ": 2172,
      "##americ": 2173,
      "## there ": 2174,
      "##ail": 2175,
      "##city ": 2176,
      "##some ": 2177,
      "##albu": 2178,
      "##any ": 2179,
      "##ble ": 2180,
      "##are": 2181,
      "##befor": 2182,
      "##batt": 2183,
      "##buil": 2184,
      "##struct": 2185,
      "##s the ": 2186,
      "##@,@ 0": 2187,
      "##ed on ": 2188,
      "##ship ": 2189,
      "##fer": 2190,
      "##song ": 2191,
      "##such ": 2192,
      "##during the ": 2193,
      "##es . ": 2194,
      "##add": 2195,
      "##day ": 2196,
      "##ple ": 2197,
      "##gam": 2198,
      "##under": 2199,
      "##gener": 2200,
      "## three ": 2201,
      "##ans": 2202,
      "##pop": 2203,
      "##many ": 2204,
      "##ision ": 2205,
      "##hist": 2206,
      "##unt": 2207,
      "##in a ": 2208,
      "##bel": 2209,
      "##compl": 2210,
      "##ru": 2211,
      "##ed in the ": 2212,
      "##later ": 2213,
      "##early ": 2214,
      "##into ": 2215,
      "##itt": 2216,
      "##mil": 2217,
      "##cer": 2218,
      "##wat": 2219,
      "##lin": 2220,
      "##es and ": 2221,
      "##ement ": 2222,
      "##aug": 2223,
      "##to ": 2224,
      "##way ": 2225,
      "##t , ": 2226,
      "##cri": 2227,
      "##ed by the ": 2228,
      "##bot": 2229,
      "##ip": 2230,
      "##rel": 2231,
      "##after": 2232,
      "##ry ": 2233,
      "##cc": 2234,
      "##series ": 2235,
      "##direc": 2236,
      "##about ": 2237,
      "##appear": 2238,
      "##mi": 2239,
      "##no ": 2240,
      "##div": 2241,
      "##\" . ": 2242,
      "##red": 2243,
      "##ing a ": 2244,
      "##eg": 2245,
      "##inn": 2246,
      "##en the ": 2247,
      "##elop": 2248,
      "##call": 2249,
      "##sever": 2250,
      "##s , and ": 2251,
      "##can ": 2252,
      "##rece": 2253,
      "##second ": 2254,
      "##199": 2255,
      "##record": 2256,
      "##ett": 2257,
      "##world ": 2258,
      "##ju": 2259,
      "##howev": 2260,
      "##als ": 2261,
      "##es of ": 2262,
      "##ition": 2263,
      "##ion of ": 2264,
      "##orig": 2265,
      "##with a ": 2266,
      "##year ": 2267,
      "##ian": 2268,
      "##med": 2269,
      "##ge": 2270,
      "##well ": 2271,
      "##national ": 2272,
      "##made ": 2273,
      "##high": 2274,
      "##bar": 2275,
      "##\" the ": 2276,
      "##inv": 2277,
      "##oper": 2278,
      "##south ": 2279,
      "##bro": 2280,
      "##ose ": 2281,
      "##fo": 2282,
      "##old": 2283,
      "##ings ": 2284,
      "##fac": 2285,
      "##alth": 2286,
      "##again": 2287,
      "##sa": 2288,
      "##ince ": 2289,
      "##un ": 2290,
      "##charact": 2291,
      "##him ": 2292,
      "##epis": 2293,
      "##@,@ 000 ": 2294,
      "##sim": 2295,
      "##c ": 2296,
      "##develop": 2297,
      "##. this ": 2298,
      "##centur": 2299,
      "##sul": 2300,
      "##ily ": 2301,
      "##work": 2302,
      "##ities ": 2303,
      "##descri": 2304,
      "##ol ": 2305,
      "##north ": 2306,
      "##sm": 2307,
      "##ide": 2308,
      "##ger": 2309,
      "##vers": 2310,
      "##episod": 2311,
      "##nov": 2312,
      "##mill": 2313,
      "##origin": 2314,
      "##brit": 2315,
      "##/ ": 2316,
      "##prot": 2317,
      "##ing , ": 2318,
      "##between ": 2319,
      "##joh": 2320,
      "##is a ": 2321,
      "##cur": 2322,
      "##sing": 2323,
      "##became ": 2324,
      "##crit": 2325,
      "##e of the ": 2326,
      "## these ": 2327,
      "##hom": 2328,
      "##peri": 2329,
      "##direct": 2330,
      "##film ": 2331,
      "##state ": 2332,
      "##lif": 2333,
      "##number ": 2334,
      "##uary ": 2335,
      "##ered ": 2336,
      "##known ": 2337,
      "##being ": 2338,
      "##was": 2339,
      "##united ": 2340,
      "##both ": 2341,
      "##land": 2342,
      "##work ": 2343,
      "##war ": 2344,
      "##ship": 2345,
      "##ari": 2346,
      "##contin": 2347,
      "##sol": 2348,
      "##feat": 2349,
      "##riv": 2350,
      "## te": 2351,
      "##can": 2352,
      "## tak": 2353,
      "##t of the ": 2354,
      "##ty ": 2355,
      "##ext": 2356,
      "##several ": 2357,
      "##les ": 2358,
      "##succ": 2359,
      "##view": 2360,
      "##main": 2361,
      "##s .  ": 2362,
      "##yp": 2363,
      "##ther ": 2364,
      "## time ": 2365,
      "##met": 2366,
      "##ef": 2367,
      "##popul": 2368,
      "##fam": 2369,
      "##line ": 2370,
      "##diff": 2371,
      "##cr": 2372,
      "##was the ": 2373,
      "##w ": 2374,
      "##ick": 2375,
      "##ten ": 2376,
      "##vis": 2377,
      "##chur": 2378,
      "##four ": 2379,
      "##gover": 2380,
      "##inc": 2381,
      "##ide ": 2382,
      "## tra": 2383,
      "##cas": 2384,
      "##op ": 2385,
      "##az": 2386,
      "##ed to the ": 2387,
      "##north": 2388,
      "##. it ": 2389,
      "##to": 2390,
      "##ation of ": 2391,
      "##ed for ": 2392,
      "##ual ": 2393,
      "##offic": 2394,
      "##mo": 2395,
      "##album ": 2396,
      "##s of the ": 2397,
      "##s that ": 2398,
      "##@-@": 2399,
      "##becaus": 2400,
      "##eu": 2401,
      "##y to ": 2402,
      "##ank": 2403,
      "##resp": 2404,
      "##sk": 2405,
      "##jun": 2406,
      "##org": 2407,
      "##govern": 2408,
      "##ign ": 2409,
      "##ou ": 2410,
      "##gl": 2411,
      "##ed as ": 2412,
      "##re ": 2413,
      "##press": 2414,
      "##peo": 2415,
      "##dep": 2416,
      "##ific": 2417,
      "##wil": 2418,
      "##star": 2419,
      "##shor": 2420,
      "##mem": 2421,
      "##before ": 2422,
      "##music ": 2423,
      "##nat": 2424,
      "##even ": 2425,
      "##ond": 2426,
      "##forc": 2427,
      "##10 ": 2428,
      "##ed with ": 2429,
      "##chang": 2430,
      "##ful": 2431,
      "##iev": 2432,
      "##— ": 2433,
      "##fiel": 2434,
      "##him": 2435,
      "##grou": 2436,
      "##hous": 2437,
      "##leg": 2438,
      "## to be ": 2439,
      "##bre": 2440,
      "##describ": 2441,
      "##port ": 2442,
      "##ton ": 2443,
      "## that": 2444,
      "##z ": 2445,
      "##pow": 2446,
      "##grap": 2447,
      "##west ": 2448,
      "##ed and ": 2449,
      "##ating ": 2450,
      "##ually ": 2451,
      "##cond": 2452,
      "##enn": 2453,
      "##ed . ": 2454,
      "##ect ": 2455,
      "##oci": 2456,
      "## them ": 2457,
      "##maj": 2458,
      "##could ": 2459,
      "##s . the ": 2460,
      "##ection ": 2461,
      "##, t": 2462,
      "##bur": 2463,
      "##bor": 2464,
      "##a l": 2465,
      "##continu": 2466,
      "##hig": 2467,
      "##sign": 2468,
      "##mod": 2469,
      "##produc": 2470,
      "##hor": 2471,
      "##bi": 2472,
      "##since ": 2473,
      "##ale ": 2474,
      "##do": 2475,
      "##er and ": 2476,
      "##wal": 2477,
      "##back": 2478,
      "##son": 2479,
      "##wo": 2480,
      "##wee": 2481,
      "##new": 2482,
      "##jan": 2483,
      "##dra": 2484,
      "## through": 2485,
      "##roy": 2486,
      "##east ": 2487,
      "##ke": 2488,
      "##fur": 2489,
      "##mag": 2490,
      "##def": 2491,
      "##) . ": 2492,
      "##receiv": 2493,
      "##american ": 2494,
      "##pit": 2495,
      "##ment": 2496,
      "##however , ": 2497,
      "##british ": 2498,
      "##play ": 2499,
      "##after the ": 2500,
      "##complet": 2501,
      "##he was ": 2502,
      "##so": 2503,
      "##near": 2504,
      "##each ": 2505,
      "##yl": 2506,
      "##church ": 2507,
      "##did ": 2508,
      "##like ": 2509,
      "## then ": 2510,
      "##es to ": 2511,
      "##arch": 2512,
      "##song": 2513,
      "##pass": 2514,
      "##ath ": 2515,
      "##one of the ": 2516,
      "##17": 2517,
      "##south": 2518,
      "##16": 2519,
      "## ter": 2520,
      "##rot": 2521,
      "##hum": 2522,
      "##is the ": 2523,
      "##ird ": 2524,
      "##hal": 2525,
      "##exp": 2526,
      "##dist": 2527,
      "##fre": 2528,
      "##m ) ": 2529,
      "##sl": 2530,
      "##mot": 2531,
      "##contro": 2532,
      "##rac": 2533,
      "##adv": 2534,
      "##area ": 2535,
      "##chil": 2536,
      "##es the ": 2537,
      "##century ": 2538,
      "##tim": 2539,
      "##rist": 2540,
      "##liv": 2541,
      "##austr": 2542,
      "##y of ": 2543,
      "##ially ": 2544,
      "##war": 2545,
      "##consid": 2546,
      "##sept": 2547,
      "##scho": 2548,
      "##ho": 2549,
      "##hur": 2550,
      "##had been ": 2551,
      "##million ": 2552,
      "##ently ": 2553,
      "##ord ": 2554,
      "##e , and ": 2555,
      "##becom": 2556,
      "##ers , ": 2557,
      "##no": 2558,
      "##point": 2559,
      "##clu": 2560,
      "##fu": 2561,
      "##abl": 2562,
      " in ": 2563,
      "##ors ": 2564,
      "##ever ": 2565,
      "##rev": 2566,
      "##ivers": 2567,
      "##1 , ": 2568,
      "##remain": 2569,
      "##sum": 2570,
      "##spor": 2571,
      "##scor": 2572,
      "##against ": 2573,
      "##five ": 2574,
      "##miss": 2575,
      "## than ": 2576,
      "##ley ": 2577,
      "##mark": 2578,
      "##ce": 2579,
      "##high ": 2580,
      "##ts ": 2581,
      "##best ": 2582,
      "##198": 2583,
      "##have been ": 2584,
      "##austral": 2585,
      "##air ": 2586,
      "##disc": 2587,
      "##september ": 2588,
      "##0 , ": 2589,
      "##ii ": 2590,
      "##john ": 2591,
      "##50 ": 2592,
      "##er 's ": 2593,
      "##vari": 2594,
      "##resul": 2595,
      "##august ": 2596,
      "##det": 2597,
      "##e in ": 2598,
      "## them": 2599,
      "##leag": 2600,
      "##out the ": 2601,
      "##194": 2602,
      "##lead": 2603,
      "##coll": 2604,
      "##ym": 2605,
      "##. they ": 2606,
      "##20 ": 2607,
      "##open": 2608,
      "##during ": 2609,
      "##ion , ": 2610,
      "##another ": 2611,
      "##and t": 2612,
      "##ie ": 2613,
      "##a f": 2614,
      "##return": 2615,
      "##including ": 2616,
      "##ane ": 2617,
      "##dam": 2618,
      "##although ": 2619,
      "##a and ": 2620,
      "##event": 2621,
      "##into the ": 2622,
      "##west": 2623,
      "##set ": 2624,
      "##har": 2625,
      "##o , ": 2626,
      "##del": 2627,
      "##ech": 2628,
      "##larg": 2629,
      "##5 , ": 2630,
      "##196": 2631,
      "##species ": 2632,
      "##you ": 2633,
      "##cour": 2634,
      "##vide": 2635,
      "##dem": 2636,
      "##s ( ": 2637,
      "##what ": 2638,
      "##eff": 2639,
      "##ount": 2640,
      "##giv": 2641,
      "##s are ": 2642,
      "##main ": 2643,
      "##incre": 2644,
      "##ed at ": 2645,
      "##e to the ": 2646,
      "##same ": 2647,
      "##% ": 2648,
      "##ery ": 2649,
      "##197": 2650,
      "##30 ": 2651,
      "##ave ": 2652,
      "##apr": 2653,
      "##ball ": 2654,
      "##lik": 2655,
      "##partic": 2656,
      "##self ": 2657,
      "##stu": 2658,
      "##er . ": 2659,
      "##i , ": 2660,
      "##way": 2661,
      "##construct": 2662,
      "##large ": 2663,
      "##stre": 2664,
      "##3 , ": 2665,
      "##cam": 2666,
      "##now ": 2667,
      "##united stat": 2668,
      "##found ": 2669,
      "##ional ": 2670,
      "##field ": 2671,
      "##caus": 2672,
      "##ject": 2673,
      "##ing and ": 2674,
      "##it is ": 2675,
      "##es in ": 2676,
      "##e that ": 2677,
      "##final ": 2678,
      "##univers": 2679,
      "##critic": 2680,
      "##..": 2681,
      "##dom": 2682,
      "##camp": 2683,
      "##start": 2684,
      "##ire ": 2685,
      "##centr": 2686,
      "##sist": 2687,
      "##val": 2688,
      "##accord": 2689,
      "##graph": 2690,
      "##yor": 2691,
      "##has been ": 2692,
      "##road ": 2693,
      "##company ": 2694,
      "##cra": 2695,
      "##such as ": 2696,
      "##gg": 2697,
      "##roc": 2698,
      "##product": 2699,
      "##al , ": 2700,
      "##on , ": 2701,
      "##ise ": 2702,
      "##ures ": 2703,
      "##of t": 2704,
      "##years ": 2705,
      "##er of ": 2706,
      "##ribut": 2707,
      "##increas": 2708,
      "##octo": 2709,
      "##cu": 2710,
      "##ural ": 2711,
      "##present": 2712,
      "##organ": 2713,
      "##es that ": 2714,
      "##will ": 2715,
      "##$ ": 2716,
      "##capt": 2717,
      "##build": 2718,
      "##east": 2719,
      "##down ": 2720,
      "##people ": 2721,
      "##per ": 2722,
      "##red ": 2723,
      "##sequ": 2724,
      "##design": 2725,
      "##october ": 2726,
      "##te": 2727,
      "##manag": 2728,
      "##aur": 2729,
      "##ys": 2730,
      "##ock": 2731,
      "##under ": 2732,
      "##inf": 2733,
      "##wrot": 2734,
      "##de ": 2735,
      "##read": 2736,
      "##stud": 2737,
      "##ropical ": 2738,
      "##government ": 2739,
      "##stand": 2740,
      "##sci": 2741,
      "##aim": 2742,
      "##muc": 2743,
      "##was a ": 2744,
      "##ground ": 2745,
      "##ifi": 2746,
      "##low ": 2747,
      "##show": 2748,
      "##pur": 2749,
      "##hol": 2750,
      "##12": 2751,
      "##ham": 2752,
      "##ather ": 2753,
      "## trans": 2754,
      "##six ": 2755,
      "##day": 2756,
      "##vict": 2757,
      "##4 , ": 2758,
      "##ing of ": 2759,
      "##adi": 2760,
      "##ular ": 2761,
      "##pri": 2762,
      "##bers ": 2763,
      "##ation , ": 2764,
      "##histor": 2765,
      "##e \" ": 2766,
      "##en , ": 2767,
      "##run": 2768,
      "##ni": 2769,
      "##white ": 2770,
      "##public ": 2771,
      "##es were ": 2772,
      "##history ": 2773,
      "##july ": 2774,
      "## through ": 2775,
      "##ed on the ": 2776,
      "##cal": 2777,
      "##, th": 2778,
      "##ass ": 2779,
      "##much ": 2780,
      "##name ": 2781,
      "##christ": 2782,
      "##) and ": 2783,
      " = ": 2784,
      "##ed that the ": 2785,
      "##form ": 2786,
      "##storm ": 2787,
      "##establ": 2788,
      "##rout": 2789,
      "##ed his ": 2790,
      "##lov": 2791,
      "##success": 2792,
      "##a . ": 2793,
      "##differ": 2794,
      "##se ": 2795,
      "##late ": 2796,
      "##back ": 2797,
      "##ative ": 2798,
      "##ed \" ": 2799,
      "##report": 2800,
      "##general ": 2801,
      "##12 ": 2802,
      "##ately ": 2803,
      "##a 's ": 2804,
      "##ak ": 2805,
      "##auth": 2806,
      "##expl": 2807,
      "##began ": 2808,
      "##until ": 2809,
      "##had": 2810,
      "##ion of the ": 2811,
      "##fri": 2812,
      "##15 ": 2813,
      "##empt": 2814,
      "##previ": 2815,
      "##film": 2816,
      "##publish": 2817,
      "##jam": 2818,
      "##mic": 2819,
      "##bus": 2820,
      "##ards ": 2821,
      "##june ": 2822,
      "##lev": 2823,
      "##off ": 2824,
      "##as well ": 2825,
      "##clos": 2826,
      "##studi": 2827,
      "##ire": 2828,
      "##rang": 2829,
      "##ward ": 2830,
      "##found": 2831,
      "##group ": 2832,
      "##ity of ": 2833,
      "##eer ": 2834,
      "##y and ": 2835,
      "##commun": 2836,
      "##10": 2837,
      "##long ": 2838,
      "##bir": 2839,
      "##es ( ": 2840,
      "##very ": 2841,
      "##ds ": 2842,
      "##major ": 2843,
      "##march ": 2844,
      "##position ": 2845,
      "##following ": 2846,
      "##vill": 2847,
      "##men ": 2848,
      "##we ": 2849,
      "##issu": 2850,
      "##january ": 2851,
      "##ing that ": 2852,
      "##record ": 2853,
      "##ans ": 2854,
      "##\" and ": 2855,
      "##heav": 2856,
      "##vo": 2857,
      "##elect": 2858,
      "##bit": 2859,
      "##e was ": 2860,
      "##law": 2861,
      "##er to ": 2862,
      "##stri": 2863,
      "##ing in ": 2864,
      "##flu": 2865,
      "##fel": 2866,
      "##family ": 2867,
      "##wom": 2868,
      "##y . ": 2869,
      "##allow": 2870,
      "##command": 2871,
      "##england ": 2872,
      "##ought ": 2873,
      "##s in the ": 2874,
      "##s t": 2875,
      "##stem ": 2876,
      "##video ": 2877,
      "##reach": 2878,
      "##olv": 2879,
      "##ick ": 2880,
      "##mad": 2881,
      "##init": 2882,
      "##ically ": 2883,
      "##ively ": 2884,
      "##appro": 2885,
      "##november ": 2886,
      "##ful ": 2887,
      "##once ": 2888,
      "##indi": 2889,
      "##ident": 2890,
      "##champ": 2891,
      "##for a ": 2892,
      "##ident ": 2893,
      "##head ": 2894,
      "##inst": 2895,
      "##ism ": 2896,
      "##polit": 2897,
      "##original ": 2898,
      "##2 , ": 2899,
      "##if ": 2900,
      "##milit": 2901,
      "##pat": 2902,
      "##used ": 2903,
      "##sit": 2904,
      "##my ": 2905,
      "##ern": 2906,
      "##over the ": 2907,
      "##hurric": 2908,
      "##april ": 2909,
      "##down": 2910,
      "##did not ": 2911,
      "##pi": 2912,
      "##] ": 2913,
      "##december ": 2914,
      "##establish": 2915,
      "##bod": 2916,
      "##ates ": 2917,
      "##dest": 2918,
      "##book ": 2919,
      "##ed from ": 2920,
      "##requ": 2921,
      "##elev": 2922,
      "##mer": 2923,
      "##[ ": 2924,
      "##eder": 2925,
      "##rais": 2926,
      "##a c": 2927,
      "##ext ": 2928,
      "##as \" ": 2929,
      "##death ": 2930,
      "##just ": 2931,
      "##\" .  ": 2932,
      "##ron": 2933,
      "##la": 2934,
      "##let": 2935,
      "##do ": 2936,
      "##head": 2937,
      "##built ": 2938,
      "##long": 2939,
      "##youn": 2940,
      "##division ": 2941,
      "##ious ": 2942,
      "##int ": 2943,
      "##side ": 2944,
      "##9 , ": 2945,
      "##around ": 2946,
      "##feder": 2947,
      "##pet": 2948,
      "##river ": 2949,
      "##s. ": 2950,
      "##ll": 2951,
      "##em ": 2952,
      "##i @-@ ": 2953,
      "##king": 2954,
      "##; the ": 2955,
      "##forman": 2956,
      "##perform": 2957,
      "##attempt": 2958,
      "##ously ": 2959,
      "##6 , ": 2960,
      "##island ": 2961,
      "##possi": 2962,
      "##ib": 2963,
      "##ld": 2964,
      "##o @-@ ": 2965,
      "##ed t": 2966,
      "##force ": 2967,
      "##brig": 2968,
      "##squ": 2969,
      "##role ": 2970,
      "##pa": 2971,
      "##vir": 2972,
      "##act ": 2973,
      "##ash": 2974,
      "##refer": 2975,
      "##of a ": 2976,
      "##performan": 2977,
      "##7 , ": 2978,
      "##import": 2979,
      "##claim": 2980,
      "##mount": 2981,
      "##band ": 2982,
      "##8 , ": 2983,
      "##ption ": 2984,
      "##able to ": 2985,
      "##believ": 2986,
      "##ong the ": 2987,
      "##number of ": 2988,
      "##cle": 2989,
      "##. \"  ": 2990,
      "##two ": 2991,
      "##life ": 2992,
      "##league ": 2993,
      "##mid": 2994,
      "##hu": 2995,
      "##es .  ": 2996,
      "##system ": 2997,
      "##water ": 2998,
      "##14 ": 2999,
      "##kill": 3000,
      "##along ": 3001,
      "##list": 3002,
      "##nav": 3003,
      "##16 ": 3004,
      "##rat": 3005,
      "##sal": 3006,
      "##ins ": 3007,
      "##last ": 3008,
      "##ement": 3009,
      "##prof": 3010,
      "##eas": 3011,
      "##in 18": 3012,
      "##ia , ": 3013,
      "##german ": 3014,
      "##club ": 3015,
      "##cat": 3016,
      "##an , ": 3017,
      "##iss": 3018,
      "##195": 3019,
      "##first": 3020,
      "##still ": 3021,
      "##sugg": 3022,
      "##black ": 3023,
      "##yle ": 3024,
      "##hear": 3025,
      "##ott": 3026,
      "##called ": 3027,
      "##review": 3028,
      "##prim": 3029,
      "##battal": 3030,
      "##, they ": 3031,
      "##ind ": 3032,
      "##spe": 3033,
      "##engl": 3034,
      "##itut": 3035,
      "##associ": 3036,
      "##fren": 3037,
      "##ying ": 3038,
      "##again ": 3039,
      "##193": 3040,
      "##person": 3041,
      "##simil": 3042,
      "##week": 3043,
      "##ang ": 3044,
      "##of his ": 3045,
      "##period ": 3046,
      "##ing t": 3047,
      "##cy": 3048,
      "##a b": 3049,
      "##ask": 3050,
      "##curr": 3051,
      "##light ": 3052,
      "##my": 3053,
      "##compan": 3054,
      "##hy": 3055,
      "##activ": 3056,
      "##1 @.@ ": 3057,
      "##would be ": 3058,
      "##mal": 3059,
      "##military ": 3060,
      "##foot": 3061,
      "##sw": 3062,
      "##pal": 3063,
      "##y 's ": 3064,
      "##often ": 3065,
      "##enter": 3066,
      "##great ": 3067,
      "##'t ": 3068,
      "##exam": 3069,
      "##ress": 3070,
      "##equ": 3071,
      "##art ": 3072,
      "##ex ": 3073,
      "##support": 3074,
      "##... ": 3075,
      "##fun": 3076,
      "##cros": 3077,
      "##owl": 3078,
      "##v ": 3079,
      "##cert": 3080,
      "##suggest": 3081,
      "##in t": 3082,
      "##count": 3083,
      "##ah": 3084,
      "##in 200": 3085,
      "##conn": 3086,
      "##whe": 3087,
      "##surv": 3088,
      "##gra": 3089,
      "##me ": 3090,
      "##. t": 3091,
      "##show ": 3092,
      "##fron": 3093,
      "##local ": 3094,
      "##school ": 3095,
      "##18 ": 3096,
      "##y t": 3097,
      "##hand": 3098,
      "##ms ": 3099,
      "##compet": 3100,
      "##respon": 3101,
      "##th century ": 3102,
      "##which": 3103,
      "##r ": 3104,
      "##ning ": 3105,
      "##ograph": 3106,
      "##25 ": 3107,
      "##reat": 3108,
      "##part of the ": 3109,
      "##great": 3110,
      "##addition": 3111,
      "##er of the ": 3112,
      "##depend": 3113,
      "##ers and ": 3114,
      "##view ": 3115,
      "##single ": 3116,
      "##wid": 3117,
      "##nes": 3118,
      "##class": 3119,
      "##mak": 3120,
      "##further ": 3121,
      "##fact": 3122,
      "##in his ": 3123,
      "##, but ": 3124,
      "##episode ": 3125,
      "##ons ": 3126,
      "##left ": 3127,
      "##because ": 3128,
      "##childr": 3129,
      "##eal": 3130,
      "##ular": 3131,
      "##attack": 3132,
      "##provid": 3133,
      "##13 ": 3134,
      "##french ": 3135,
      "##oy": 3136,
      "##ics ": 3137,
      "##empl": 3138,
      "##, which ": 3139,
      "##. a ": 3140,
      "##said": 3141,
      "##eastern ": 3142,
      "##100 ": 3143,
      "##star ": 3144,
      "##when the ": 3145,
      "##pris": 3146,
      "##york ": 3147,
      "##11 ": 3148,
      "##es . the ": 3149,
      "##comb": 3150,
      "##gun": 3151,
      "##los": 3152,
      "##on a ": 3153,
      "##written ": 3154,
      "##ham ": 3155,
      "##es of the ": 3156,
      "##ake ": 3157,
      "##scen": 3158,
      "##home ": 3159,
      "##itle ": 3160,
      "##more th": 3161,
      "##said ": 3162,
      "##according to ": 3163,
      "## took ": 3164,
      "##between the ": 3165,
      "##canad": 3166,
      "##english ": 3167,
      "##bab": 3168,
      "##spir": 3169,
      "##aut": 3170,
      "##ef ": 3171,
      "## trad": 3172,
      "##colon": 3173,
      "##half ": 3174,
      "##ey": 3175,
      "##ality ": 3176,
      "##posit": 3177,
      "##ology ": 3178,
      "##lim": 3179,
      "##rod": 3180,
      "## those ": 3181,
      "##observ": 3182,
      "##  ": 3183,
      "##ah ": 3184,
      "##four": 3185,
      "##sett": 3186,
      "##ina ": 3187,
      "##progr": 3188,
      "##without ": 3189,
      "##countr": 3190,
      "##next ": 3191,
      "##der": 3192,
      "##cath": 3193,
      "##ank ": 3194,
      "##say": 3195,
      "##k , ": 3196,
      "##ility ": 3197,
      "##want": 3198,
      "##, to ": 3199,
      "##gal": 3200,
      "##ace ": 3201,
      "##ford ": 3202,
      "##agre": 3203,
      "##flo": 3204,
      "##in 199": 3205,
      "##ements ": 3206,
      "##ittle ": 3207,
      "##doc": 3208,
      "##km ": 3209,
      "##ed to be ": 3210,
      "##international ": 3211,
      "##febr": 3212,
      "##onom": 3213,
      "##bra": 3214,
      "##former ": 3215,
      "##due to ": 3216,
      "##wind": 3217,
      "##arn": 3218,
      "##ensive ": 3219,
      "##development ": 3220,
      "##dyl": 3221,
      "##ens ": 3222,
      "##st the ": 3223,
      "##exc": 3224,
      "## tri": 3225,
      "##aff": 3226,
      "##augh": 3227,
      "##hurricane ": 3228,
      "##const": 3229,
      "##february ": 3230,
      "##ai ": 3231,
      "##influ": 3232,
      "##phil": 3233,
      "##story ": 3234,
      "##ounc": 3235,
      "##im ": 3236,
      "##cult": 3237,
      "##& ": 3238,
      "##ere": 3239,
      "##western ": 3240,
      "##13": 3241,
      "##reas": 3242,
      "##replac": 3243,
      "##action ": 3244,
      "##featur": 3245,
      "##17 ": 3246,
      "##rown ": 3247,
      "##elevision ": 3248,
      "##ium ": 3249,
      "##his": 3250,
      "##ustr": 3251,
      "##make ": 3252,
      "##europ": 3253,
      "##consider": 3254,
      "##nic": 3255,
      "##mos": 3256,
      "##40 ": 3257,
      "##liam": 3258,
      "##: \" ": 3259,
      "##jap": 3260,
      "##ation of the ": 3261,
      "##afric": 3262,
      "##bert ": 3263,
      "## team ": 3264,
      "##dav": 3265,
      "##a ( ": 3266,
      "##ers . ": 3267,
      "##vert": 3268,
      "##received ": 3269,
      "##lab": 3270,
      "##scri": 3271,
      "##guit": 3272,
      "##united states ": 3273,
      "##ial": 3274,
      "##15": 3275,
      "##a \" ": 3276,
      "##brid": 3277,
      "##board ": 3278,
      "##she was ": 3279,
      "##fle": 3280,
      "##less ": 3281,
      "##involv": 3282,
      "##e @-@ ": 3283,
      "##inste": 3284,
      "##contain": 3285,
      "##held ": 3286,
      "##sam": 3287,
      "##alt": 3288,
      "##different ": 3289,
      "##or , ": 3290,
      "##ed as a ": 3291,
      "##age of ": 3292,
      "##ets ": 3293,
      "##ing . ": 3294,
      "##run ": 3295,
      "##m , ": 3296,
      "##es in the ": 3297,
      "##southern ": 3298,
      "##xim": 3299,
      "##central ": 3300,
      "##anim": 3301,
      "##common ": 3302,
      "##champion": 3303,
      "##cul": 3304,
      "##of their ": 3305,
      "##ith ": 3306,
      "##els ": 3307,
      "##19 ": 3308,
      "##ris": 3309,
      "##cop": 3310,
      "##cast": 3311,
      "##mc": 3312,
      "##acros": 3313,
      "##use ": 3314,
      "##ren": 3315,
      "##hon": 3316,
      "##otal ": 3317,
      "##members ": 3318,
      "##represent": 3319,
      "##organiz": 3320,
      " \" ": 3321,
      "##an 's ": 3322,
      "##ation . ": 3323,
      "##battle ": 3324,
      "##player ": 3325,
      "##ure": 3326,
      "##jur": 3327,
      "##arg": 3328,
      "##ed .  ": 3329,
      "##conv": 3330,
      "##county ": 3331,
      "##e 's ": 3332,
      "##erc": 3333,
      "##row ": 3334,
      "##production ": 3335,
      "##es are ": 3336,
      "##plan": 3337,
      "##away ": 3338,
      "##fem": 3339,
      "##father ": 3340,
      "##ek ": 3341,
      "##0s ": 3342,
      "##author": 3343,
      "##ject ": 3344,
      "##earli": 3345,
      "##under the ": 3346,
      "##children ": 3347,
      "##sent": 3348,
      "##ected ": 3349,
      "##. on ": 3350,
      "##career ": 3351,
      "##more than ": 3352,
      "##never ": 3353,
      "##site ": 3354,
      "##relat": 3355,
      "##finish": 3356,
      "##pen": 3357,
      "##led ": 3358,
      "##ought": 3359,
      "##regim": 3360,
      "##northern ": 3361,
      "##rap": 3362,
      "##radi": 3363,
      "##ing to the ": 3364,
      "##fort": 3365,
      "##decid": 3366,
      "##public": 3367,
      "##effect": 3368,
      "##bill": 3369,
      "##style ": 3370,
      "##on @-@ ": 3371,
      "##ug": 3372,
      "##ed to": 3373,
      "##become ": 3374,
      "##fif": 3375,
      "##fail": 3376,
      "##right ": 3377,
      "##y the ": 3378,
      "##u.": 3379,
      "## through the ": 3380,
      "##craft ": 3381,
      "##dat": 3382,
      "##win ": 3383,
      "##fig": 3384,
      "##highway ": 3385,
      "##! ": 3386,
      "##ific ": 3387,
      "##mean": 3388,
      "##god ": 3389,
      "##bal": 3390,
      "##named ": 3391,
      "##which was ": 3392,
      "##2010 ": 3393,
      "##den": 3394,
      "##and a ": 3395,
      "##seen ": 3396,
      "##other": 3397,
      "##engin": 3398,
      "##announc": 3399,
      "##can be ": 3400,
      "##net": 3401,
      "##. there ": 3402,
      "##bon": 3403,
      "##proc": 3404,
      "##ogn": 3405,
      "##mix": 3406,
      "##small ": 3407,
      "##cast ": 3408,
      "##little ": 3409,
      "##bri": 3410,
      "##grad": 3411,
      "##rid": 3412,
      "##sor": 3413,
      "##opp": 3414,
      "##character ": 3415,
      "##draw": 3416,
      "##performance ": 3417,
      "##eth": 3418,
      "##concer": 3419,
      "##introd": 3420,
      "##arriv": 3421,
      "##royal ": 3422,
      "##rest": 3423,
      "##que": 3424,
      "##soci": 3425,
      "##live ": 3426,
      "##lond": 3427,
      "##s \" ": 3428,
      "##rul": 3429,
      "## tran": 3430,
      "##present ": 3431,
      "##army ": 3432,
      "##ireland ": 3433,
      "##instead ": 3434,
      "##lit": 3435,
      "##book": 3436,
      "##match ": 3437,
      "##young ": 3438,
      "##president ": 3439,
      "##place ": 3440,
      "##damag": 3441,
      "##civ": 3442,
      "##marri": 3443,
      "##:  ": 3444,
      "##minut": 3445,
      "##ological ": 3446,
      "##ing of the ": 3447,
      "##consist": 3448,
      "##suff": 3449,
      "##games ": 3450,
      "##however ": 3451,
      "##control ": 3452,
      "##destroy": 3453,
      " on ": 3454,
      "##eight ": 3455,
      "##seven ": 3456,
      "## take ": 3457,
      "##ep ": 3458,
      "##burn": 3459,
      "##ended ": 3460,
      "##point ": 3461,
      "##ough the ": 3462,
      "##but the ": 3463,
      "##ean ": 3464,
      "##sun": 3465,
      "##s from ": 3466,
      "##a m": 3467,
      "##ech ": 3468,
      "##rich": 3469,
      "##short": 3470,
      "##rus": 3471,
      "##e ( ": 3472,
      "##fort ": 3473,
      "##appl": 3474,
      "##experi": 3475,
      "##scient": 3476,
      "##erv": 3477,
      "##. in the ": 3478,
      "##night ": 3479,
      "##ing \" ": 3480,
      "##sen": 3481,
      "##ole ": 3482,
      "##mast": 3483,
      "##oliv": 3484,
      "##ucle": 3485,
      "##relig": 3486,
      "##bul": 3487,
      "##. it was ": 3488,
      "##feet ": 3489,
      "##gar": 3490,
      "##full ": 3491,
      "##signific": 3492,
      "##near ": 3493,
      "##university ": 3494,
      "##dre": 3495,
      "##while the ": 3496,
      "##ering ": 3497,
      "##ict ": 3498,
      "##leav": 3499,
      "##modern ": 3500,
      "##idence ": 3501,
      "##route ": 3502,
      "##promot": 3503,
      "##campa": 3504,
      "##cir": 3505,
      "##28 ": 3506,
      "##ig ": 3507,
      "##street ": 3508,
      "##ae": 3509,
      "##erg": 3510,
      "##as an ": 3511,
      "##osaur": 3512,
      "##park ": 3513,
      "##ists ": 3514,
      "##attack ": 3515,
      "##month": 3516,
      "##relation": 3517,
      "##ram": 3518,
      "##areas ": 3519,
      "##power ": 3520,
      "##profess": 3521,
      "##lost ": 3522,
      "##ior ": 3523,
      "##24 ": 3524,
      "##esp": 3525,
      "##ion to ": 3526,
      "##fus": 3527,
      "##23 ": 3528,
      "##ony ": 3529,
      "##ator ": 3530,
      "##part ": 3531,
      "##angu": 3532,
      "##having ": 3533,
      "##@-@ t": 3534,
      "##ax": 3535,
      "##21 ": 3536,
      "##atl": 3537,
      "##ed an ": 3538,
      "##stone ": 3539,
      "##ven": 3540,
      "##, a ": 3541,
      "##roman": 3542,
      "##and th": 3543,
      "##making ": 3544,
      "##human ": 3545,
      "##vol": 3546,
      "##e .  ": 3547,
      "##ele": 3548,
      "##omb": 3549,
      "##ength ": 3550,
      "##60 ": 3551,
      "##round": 3552,
      "##dar": 3553,
      "##go ": 3554,
      "##ital ": 3555,
      "##m ( ": 3556,
      "##ult ": 3557,
      "##emp": 3558,
      "##2008 ": 3559,
      "##rock ": 3560,
      "##. th": 3561,
      "##ither ": 3562,
      "##located ": 3563,
      "##result": 3564,
      "##medi": 3565,
      "##originally ": 3566,
      "##went": 3567,
      "##appoint": 3568,
      "##2009 ": 3569,
      "##service ": 3570,
      "##began": 3571,
      "##discover": 3572,
      "##ny ": 3573,
      "##came ": 3574,
      "##compar": 3575,
      "##)  ": 3576,
      "##resear": 3577,
      "##ained ": 3578,
      "##previous ": 3579,
      "##town ": 3580,
      "##that ": 3581,
      "##award": 3582,
      "##join": 3583,
      "##broad": 3584,
      "##as well as ": 3585,
      "##ps ": 3586,
      "##good ": 3587,
      "##wood ": 3588,
      "##domin": 3589,
      "##nom": 3590,
      "##ct": 3591,
      "##part of ": 3592,
      "##aw ": 3593,
      "##dom ": 3594,
      "##) .  ": 3595,
      "##week ": 3596,
      "##anth": 3597,
      "##ital": 3598,
      "##emper": 3599,
      "##) . the ": 3600,
      "##short ": 3601,
      "##born ": 3602,
      "##. these ": 3603,
      "##22 ": 3604,
      "##estim": 3605,
      "##out of ": 3606,
      "##prote": 3607,
      "##is , ": 3608,
      "##e tim": 3609,
      "##end of the ": 3610,
      "##magaz": 3611,
      "##beh": 3612,
      "##ock ": 3613,
      "##u.s. ": 3614,
      "##nucle": 3615,
      "##winn": 3616,
      "##independ": 3617,
      "##quar": 3618,
      "##political ": 3619,
      "##guitar ": 3620,
      "##ve": 3621,
      "##er was ": 3622,
      "##super": 3623,
      "##about the ": 3624,
      "##mac": 3625,
      "##ball": 3626,
      "##ed with the ": 3627,
      "##ap ": 3628,
      "##0 @.@ ": 3629,
      "##wood": 3630,
      "##various ": 3631,
      "##hen": 3632,
      "##ben": 3633,
      "##shar": 3634,
      "##opt": 3635,
      "##e to": 3636,
      "##yn": 3637,
      "##moved ": 3638,
      "##jack": 3639,
      "##should ": 3640,
      "##s to the ": 3641,
      "##put": 3642,
      "##ather": 3643,
      "##es , and ": 3644,
      "##ri ": 3645,
      "##award ": 3646,
      "##in 198": 3647,
      "##atlant": 3648,
      "##ft": 3649,
      "##reli": 3650,
      "##ington ": 3651,
      "##new york ": 3652,
      "##fav": 3653,
      "##2 @.@ ": 3654,
      "##ept ": 3655,
      "##diffic": 3656,
      "##wel": 3657,
      "## tow": 3658,
      "##ur ": 3659,
      "##apt": 3660,
      "##ized ": 3661,
      "##friend": 3662,
      "##2n": 3663,
      "##, \" ": 3664,
      "##el , ": 3665,
      "##ation and ": 3666,
      "##2007 ": 3667,
      "##ers to ": 3668,
      "##res ( ": 3669,
      "##ron ": 3670,
      "##had a ": 3671,
      "##before the ": 3672,
      "##particular": 3673,
      "##s for ": 3674,
      "##along the ": 3675,
      "##carri": 3676,
      "##euro": 3677,
      "##voc": 3678,
      "##around": 3679,
      "##comment": 3680,
      "##2011 ": 3681,
      "##include ": 3682,
      "##2nd ": 3683,
      "##io ": 3684,
      "##ient ": 3685,
      "##les": 3686,
      "##jour": 3687,
      "##aver": 3688,
      "##flor": 3689,
      "##sym": 3690,
      "##eventually ": 3691,
      "##real": 3692,
      "##ept": 3693,
      "##wif": 3694,
      "##imag": 3695,
      "##depart": 3696,
      "##strong ": 3697,
      "##against the ": 3698,
      "##possible ": 3699,
      "##istr": 3700,
      "##get ": 3701,
      "##s a ": 3702,
      "##urn ": 3703,
      "##ivid": 3704,
      "##lead ": 3705,
      "##similar": 3706,
      "##football ": 3707,
      "##important ": 3708,
      "##edg": 3709,
      "##grand ": 3710,
      "##body ": 3711,
      "##ph ": 3712,
      "##. she ": 3713,
      "##ox": 3714,
      "##cou": 3715,
      "##langu": 3716,
      "##mun": 3717,
      "##won ": 3718,
      "##etim": 3719,
      "##summ": 3720,
      "##james ": 3721,
      "##cup": 3722,
      "##any": 3723,
      "##pac": 3724,
      "##3 @.@ ": 3725,
      "##popular ": 3726,
      "##: the ": 3727,
      "##s ' ": 3728,
      "##recogn": 3729,
      "##ument": 3730,
      "##until": 3731,
      "##sess": 3732,
      "##prais": 3733,
      "##26 ": 3734,
      "##within the ": 3735,
      "##six": 3736,
      "##school": 3737,
      "##ified ": 3738,
      "##dou": 3739,
      "##god": 3740,
      "## times ": 3741,
      "##women ": 3742,
      "##ing in the ": 3743,
      "##individ": 3744,
      "##era ": 3745,
      "##ile ": 3746,
      "##defe": 3747,
      "##ies , ": 3748,
      "## trav": 3749,
      "##fa": 3750,
      "##km ) ": 3751,
      "##empor": 3752,
      "##plat": 3753,
      "##yard ": 3754,
      "##'s": 3755,
      "##stem": 3756,
      "##using ": 3757,
      "##played ": 3758,
      "##hero ": 3759,
      "##kingdom ": 3760,
      "##jer": 3761,
      "##and that ": 3762,
      "##ers were ": 3763,
      "##john": 3764,
      "##cho": 3765,
      "##propos": 3766,
      "##desp": 3767,
      "##2012 ": 3768,
      "##surviv": 3769,
      "##sil": 3770,
      "##s with ": 3771,
      "##counc": 3772,
      "##himself ": 3773,
      "##in , ": 3774,
      "##chin": 3775,
      "##compos": 3776,
      "##open ": 3777,
      "##bodi": 3778,
      "##post": 3779,
      "##support ": 3780,
      "##depress": 3781,
      "##ik": 3782,
      "##eir ": 3783,
      "##hop": 3784,
      "##less": 3785,
      "##us , ": 3786,
      "##in their ": 3787,
      "## , but ": 3788,
      "##olut": 3789,
      "##was releas": 3790,
      "##one of ": 3791,
      "##mont": 3792,
      "##australian ": 3793,
      "##don": 3794,
      "##bly ": 3795,
      "## turn": 3796,
      "##inform": 3797,
      "##commiss": 3798,
      "##following the ": 3799,
      " th": 3800,
      "##gir": 3801,
      "##gave ": 3802,
      "##jew": 3803,
      "## typ": 3804,
      "##ion . ": 3805,
      "##red to ": 3806,
      "##settl": 3807,
      "##ray": 3808,
      "##every ": 3809,
      "##syn": 3810,
      "##subsequ": 3811,
      "##cover": 3812,
      "##wa": 3813,
      "##ille ": 3814,
      "## , which ": 3815,
      "##2006 ": 3816,
      "##roop": 3817,
      "##ther": 3818,
      "##france ": 3819,
      "##archae": 3820,
      "##brigade ": 3821,
      "##fall ": 3822,
      "##sour": 3823,
      "##list ": 3824,
      "##mi ": 3825,
      "##00": 3826,
      "##only": 3827,
      "##separ": 3828,
      "##included ": 3829,
      "##re @-@ ": 3830,
      "##europe": 3831,
      "##almost ": 3832,
      "##parliam": 3833,
      "##heavy ": 3834,
      "##hold": 3835,
      "##mach": 3836,
      "##ments ": 3837,
      "##project ": 3838,
      "##ate the ": 3839,
      "##ed by a ": 3840,
      "##siz": 3841,
      "##coast ": 3842,
      "##cent ": 3843,
      "##how ": 3844,
      "## third ": 3845,
      "##scre": 3846,
      "##prepar": 3847,
      "##chart ": 3848,
      "##infant": 3849,
      "##educ": 3850,
      "##ney ": 3851,
      "##ians ": 3852,
      "##ier ": 3853,
      "##saf": 3854,
      "##mother ": 3855,
      "## they were ": 3856,
      "##australia ": 3857,
      "##piec": 3858,
      "##battalion ": 3859,
      "##grow": 3860,
      "##sat": 3861,
      "##house ": 3862,
      "##david ": 3863,
      "##ible ": 3864,
      "##os ": 3865,
      "##ston ": 3866,
      "##third ": 3867,
      "##was not ": 3868,
      "##he had ": 3869,
      "##at the tim": 3870,
      "##commerc": 3871,
      "##director ": 3872,
      "##does ": 3873,
      "##intens": 3874,
      "##others ": 3875,
      "##design ": 3876,
      "##paint": 3877,
      "##ve ": 3878,
      "##ated by ": 3879,
      "##appearance ": 3880,
      "##peopl": 3881,
      "##gold ": 3882,
      "##mur": 3883,
      "##spect": 3884,
      "##meas": 3885,
      "##collect": 3886,
      "##despite ": 3887,
      "##din": 3888,
      "##don ": 3889,
      "##pp": 3890,
      "##went ": 3891,
      "##alk": 3892,
      "##audi": 3893,
      "##priv": 3894,
      "##sav": 3895,
      "##a p": 3896,
      "##chap": 3897,
      "##exic": 3898,
      "##spac": 3899,
      "##fire ": 3900,
      "##building ": 3901,
      "##midd": 3902,
      "##dylan ": 3903,
      "##introduc": 3904,
      "##london ": 3905,
      "##station ": 3906,
      "##au ": 3907,
      "##busin": 3908,
      "##fourth ": 3909,
      "##gi": 3910,
      "##met ": 3911,
      "##mexic": 3912,
      "##ed it ": 3913,
      "##viol": 3914,
      "##aircraft ": 3915,
      "##world war ": 3916,
      "##level ": 3917,
      " in the ": 3918,
      "##cro": 3919,
      "##ling ": 3920,
      "##in this ": 3921,
      "##d , ": 3922,
      "##ed into ": 3923,
      "##ety ": 3924,
      "##uss": 3925,
      "##2013 ": 3926,
      "##nec": 3927,
      "##road": 3928,
      "##urb": 3929,
      "##improv": 3930,
      "##laun": 3931,
      "##cit": 3932,
      "##on to ": 3933,
      "##. after ": 3934,
      "##a @-@ ": 3935,
      "##= = = =  ": 3936,
      "##bey": 3937,
      "##rail": 3938,
      "##conc": 3939,
      "##s on ": 3940,
      "##scot": 3941,
      "##just": 3942,
      "##in which ": 3943,
      "##considered ": 3944,
      "##program": 3945,
      "##’ ": 3946,
      "## than": 3947,
      "##\" . the ": 3948,
      "##liam ": 3949,
      "##achiev": 3950,
      "##miles ( ": 3951,
      "##no. ": 3952,
      "##light": 3953,
      "##ash ": 3954,
      "##chas": 3955,
      "##maint": 3956,
      "##1 @,@ ": 3957,
      "##hour": 3958,
      "##ont": 3959,
      "##and was ": 3960,
      "##que ": 3961,
      "##music": 3962,
      "##infantry ": 3963,
      "##mir": 3964,
      "##27 ": 3965,
      "##of this ": 3966,
      "##generally ": 3967,
      "##micha": 3968,
      "##foc": 3969,
      "##jord": 3970,
      "##kil": 3971,
      "##ed from the ": 3972,
      "##pract": 3973,
      "##muse": 3974,
      "##servic": 3975,
      "##1st ": 3976,
      "##pil": 3977,
      "##29 ": 3978,
      "## team": 3979,
      "##echn": 3980,
      "##- ": 3981,
      "##\" , and ": 3982,
      "##room ": 3983,
      "##eth ": 3984,
      "##even": 3985,
      "##exist": 3986,
      "##indic": 3987,
      "##regard": 3988,
      "##invest": 3989,
      "##ships ": 3990,
      "##fall": 3991,
      "##sem": 3992,
      "##robert ": 3993,
      "##post ": 3994,
      "##jud": 3995,
      "##erat": 3996,
      "##ending ": 3997,
      "##carey ": 3998,
      "##prev": 3999,
      "##break": 4000,
      "##successful ": 4001,
      "##fleet ": 4002,
      "##rank": 4003,
      "##sect": 4004,
      " = = = = ": 4005,
      "##songs ": 4006,
      "##combin": 4007,
      "##kh": 4008,
      "##help": 4009,
      "##nomin": 4010,
      "##either ": 4011,
      "##right": 4012,
      "##'s t": 4013,
      "##ed of ": 4014,
      "##of these ": 4015,
      "##plann": 4016,
      "## to t": 4017,
      "##e , which ": 4018,
      "## track ": 4019,
      "##mater": 4020,
      "##soon ": 4021,
      "##sport": 4022,
      "##country ": 4023,
      "##van": 4024,
      "##a .  ": 4025,
      "## to a ": 4026,
      "##in 197": 4027,
      "##accept": 4028,
      "##rock": 4029,
      "##ract": 4030,
      "##es a ": 4031,
      "##sho": 4032,
      "##km / ": 4033,
      "##a. ": 4034,
      "##fight": 4035,
      "##sound": 4036,
      "##mel": 4037,
      "##ed their ": 4038,
      "##chi": 4039,
      "##meet": 4040,
      "##character": 4041,
      "## this": 4042,
      "##ed . the ": 4043,
      "##ith": 4044,
      "##evidence ": 4045,
      "##ent , ": 4046,
      "##institut": 4047,
      "##non @-@ ": 4048,
      "##mid ": 4049,
      "##e . the ": 4050,
      "##anch": 4051,
      "##al t": 4052,
      "##alth ": 4053,
      "##where the ": 4054,
      "##rh": 4055,
      "##pul": 4056,
      "##ed for the ": 4057,
      "##\" ( ": 4058,
      "##princ": 4059,
      "##189": 4060,
      "##season , ": 4061,
      "## train": 4062,
      "##cept": 4063,
      "##won the ": 4064,
      "##\" t": 4065,
      "##o and ": 4066,
      "##express": 4067,
      "##players ": 4068,
      "##der ": 4069,
      "##sn": 4070,
      "##. however , ": 4071,
      "##shap": 4072,
      "##n 't ": 4073,
      "##abov": 4074,
      "##s , but ": 4075,
      "##occur": 4076,
      "##200 ": 4077,
      "##athlet": 4078,
      "##system": 4079,
      "##novel ": 4080,
      "##fully ": 4081,
      "##deter": 4082,
      "##around the ": 4083,
      "##union ": 4084,
      "##wheel": 4085,
      "##until the ": 4086,
      "##hos": 4087,
      "##var": 4088,
      "##y in ": 4089,
      "##ated the ": 4090,
      "##. his ": 4091,
      "##acad": 4092,
      "##was also ": 4093,
      "##famil": 4094,
      "##days ": 4095,
      "##florid": 4096,
      "##km / h ": 4097,
      "##fut": 4098,
      "##ood ": 4099,
      "##) , and ": 4100,
      "##put ": 4101,
      "##european ": 4102,
      "##happ": 4103,
      "##ed at the ": 4104,
      "##ing it ": 4105,
      "##ing his ": 4106,
      "##edr": 4107,
      "##econom": 4108,
      "##che": 4109,
      "##least ": 4110,
      "##assist": 4111,
      "##geor": 4112,
      "##william ": 4113,
      "##uk": 4114,
      "##roman ": 4115,
      "##working ": 4116,
      "##became the ": 4117,
      "##given ": 4118,
      "##connect": 4119,
      "##atlantic ": 4120,
      "##fund": 4121,
      "##alter": 4122,
      "##real ": 4123,
      "##s , which ": 4124,
      "##sometim": 4125,
      "##small": 4126,
      "##most": 4127,
      "##native ": 4128,
      "##forces ": 4129,
      "##construction ": 4130,
      "##love ": 4131,
      "##exampl": 4132,
      "##employ": 4133,
      "##academ": 4134,
      "##soc": 4135,
      "##pot": 4136,
      "##bb": 4137,
      "##1 – ": 4138,
      "##upon ": 4139,
      "##second": 4140,
      "##brown ": 4141,
      "##ories ": 4142,
      "##ing their ": 4143,
      "##abil": 4144,
      "##earn": 4145,
      "## too ": 4146,
      "##mark ": 4147,
      "##has a ": 4148,
      "##missou": 4149,
      "##ences ": 4150,
      "##characters ": 4151,
      "##\" and \" ": 4152,
      "##bish": 4153,
      "##kel": 4154,
      "##ing for ": 4155,
      "##ecut": 4156,
      "##execut": 4157,
      "##ymp": 4158,
      "##few ": 4159,
      "##ingly ": 4160,
      "##ions of ": 4161,
      "## toge": 4162,
      "##avail": 4163,
      "##secur": 4164,
      "##up to ": 4165,
      "## throughout the ": 4166,
      "##cycl": 4167,
      "##dol": 4168,
      "##argu": 4169,
      "##intend": 4170,
      "##committ": 4171,
      "##phas": 4172,
      "##respect": 4173,
      "##magazine ": 4174,
      "##na ": 4175,
      "##ust": 4176,
      "##zh": 4177,
      "##ines ": 4178,
      "##official ": 4179,
      "##largest ": 4180,
      "##court ": 4181,
      "##team ": 4182,
      "##initially ": 4183,
      "##ek": 4184,
      "##ses ": 4185,
      "##sent ": 4186,
      "##mult": 4187,
      "##class ": 4188,
      "##spr": 4189,
      "##including the ": 4190,
      "##may be ": 4191,
      "##14": 4192,
      "##gun ": 4193,
      "##cad": 4194,
      "##anal": 4195,
      "##with his ": 4196,
      "##assem": 4197,
      "##u @-@ ": 4198,
      "##major": 4199,
      "##pitch": 4200,
      "##captur": 4201,
      "##middle ": 4202,
      "##inspir": 4203,
      "##and his ": 4204,
      "##age , ": 4205,
      "##190": 4206,
      "##driv": 4207,
      "##beginn": 4208,
      "##victory ": 4209,
      "##ra ": 4210,
      "##@-@ year ": 4211,
      "##water": 4212,
      "##itions ": 4213,
      "##among ": 4214,
      "##habit": 4215,
      "##minist": 4216,
      "##population ": 4217,
      "##visit": 4218,
      "##sold ": 4219,
      "##pap": 4220,
      "##80 ": 4221,
      "##ats ": 4222,
      "##ages ": 4223,
      "##black": 4224,
      "##colum": 4225,
      "##goal ": 4226,
      "##japan": 4227,
      "##500 ": 4228,
      "##in an ": 4229,
      "##see ": 4230,
      "##mart": 4231,
      "##nine ": 4232,
      "##bil": 4233,
      "##e tr": 4234,
      "##aint ": 4235,
      "##ministr": 4236,
      "##who had ": 4237,
      "##month ": 4238,
      "##critical ": 4239,
      "##crim": 4240,
      "##previously ": 4241,
      "##law ": 4242,
      "##championship ": 4243,
      "##george ": 4244,
      "##top ": 4245,
      "##cru": 4246,
      "##lam": 4247,
      "##all the ": 4248,
      "##£ ": 4249,
      "##arab": 4250,
      "##ches ": 4251,
      "##events ": 4252,
      "##across the ": 4253,
      "##dro": 4254,
      "##sus": 4255,
      "##ward": 4256,
      "##er ( ": 4257,
      "##roll": 4258,
      "##\" was ": 4259,
      "##occup": 4260,
      "##th centur": 4261,
      "##ress ": 4262,
      "##face ": 4263,
      "##, though ": 4264,
      "##lad": 4265,
      "##( the ": 4266,
      "##key ": 4267,
      "##ore ": 4268,
      "##industr": 4269,
      "##special ": 4270,
      "##depict": 4271,
      "##cali": 4272,
      "##hospit": 4273,
      "##fict": 4274,
      "##vest": 4275,
      "##distr": 4276,
      "##clus": 4277,
      "##blue ": 4278,
      "##ence of ": 4279,
      "##end of ": 4280,
      "##features ": 4281,
      "##approxim": 4282,
      "##dam ": 4283,
      "##pan": 4284,
      "##prec": 4285,
      "##every": 4286,
      "##ways ": 4287,
      "##began to ": 4288,
      "##mph ": 4289,
      "##on 's ": 4290,
      "##ouch": 4291,
      "##probab": 4292,
      "##neg": 4293,
      "##need": 4294,
      "##y that ": 4295,
      "##rem": 4296,
      "##stage ": 4297,
      "##al and ": 4298,
      "##ure , ": 4299,
      "##oppos": 4300,
      "## theat": 4301,
      "##assign": 4302,
      "##created ": 4303,
      "##in 196": 4304,
      "##along with ": 4305,
      "##4 @.@ ": 4306,
      "##premi": 4307,
      "##michael ": 4308,
      "##far ": 4309,
      "##poem ": 4310,
      "##operation ": 4311,
      "##, there ": 4312,
      "##give ": 4313,
      "##ali": 4314,
      "##outh ": 4315,
      "##ould": 4316,
      "##at a ": 4317,
      "##phys": 4318,
      "##leagu": 4319,
      "##research ": 4320,
      "##far": 4321,
      "##tain": 4322,
      "##ed as the ": 4323,
      "##is also ": 4324,
      "##used to ": 4325,
      "##i 's ": 4326,
      "##ers of ": 4327,
      "##seem": 4328,
      "## track": 4329,
      "##viet": 4330,
      "##wrote ": 4331,
      " t": 4332,
      "##set": 4333,
      "##en to ": 4334,
      "##ised ": 4335,
      "##omas ": 4336,
      "##i and ": 4337,
      "##structure ": 4338,
      "##known as the ": 4339,
      "##group": 4340,
      "##campaign ": 4341,
      " a ": 4342,
      "##ness ": 4343,
      "##both": 4344,
      "##immedi": 4345,
      "##blem": 4346,
      "##istic ": 4347,
      "##order ": 4348,
      "##ense ": 4349,
      "##sport ": 4350,
      "##ready ": 4351,
      "##squad": 4352,
      "##ger ": 4353,
      "##greg": 4354,
      "##ear ": 4355,
      "##word ": 4356,
      "##which the ": 4357,
      "##aj": 4358,
      "##or of ": 4359,
      "##from a ": 4360,
      "##aul ": 4361,
      "##angel": 4362,
      "##help ": 4363,
      "##ropical storm ": 4364,
      "##ago ": 4365,
      "##uck": 4366,
      "##ants ": 4367,
      "##corpor": 4368,
      "##version ": 4369,
      "##conduct": 4370,
      "##situ": 4371,
      "##responsi": 4372,
      "##particularly ": 4373,
      "##a was ": 4374,
      "##rol": 4375,
      "##chr": 4376,
      "##ush": 4377,
      "##track ": 4378,
      "##series of ": 4379,
      "##food ": 4380,
      "## that they ": 4381,
      "##power": 4382,
      "##gress": 4383,
      "##bol": 4384,
      "##come ": 4385,
      "## that he ": 4386,
      "##contribut": 4387,
      "##e . \" ": 4388,
      "##cred": 4389,
      "##ee ": 4390,
      "##ypt": 4391,
      "##cup ": 4392,
      "##mass": 4393,
      "##° ": 4394,
      "##and , ": 4395,
      "##when": 4396,
      "##defin": 4397,
      "##world": 4398,
      "##order": 4399,
      "##regular ": 4400,
      "##reception ": 4401,
      "##host": 4402,
      "##virg": 4403,
      "## , a ": 4404,
      "##shot ": 4405,
      "##for his ": 4406,
      "##2 – ": 4407,
      "##ed in a ": 4408,
      "##in 195": 4409,
      "##background ": 4410,
      "##prior": 4411,
      "##flood": 4412,
      "##date ": 4413,
      "##well": 4414,
      "## tour": 4415,
      "##s , the ": 4416,
      "##, he ": 4417,
      "##atic ": 4418,
      "##ed its ": 4419,
      "##ed , and ": 4420,
      "##use of ": 4421,
      "##2004 ": 4422,
      "##writing ": 4423,
      "##release ": 4424,
      "##significant ": 4425,
      "##missouri ": 4426,
      "##dut": 4427,
      "##wall": 4428,
      "##in ) ": 4429,
      "##ential ": 4430,
      "##rain": 4431,
      "##difficult": 4432,
      "##council ": 4433,
      "##den ": 4434,
      "##gul": 4435,
      "##ply ": 4436,
      "##ban": 4437,
      "##wide ": 4438,
      "##zz": 4439,
      "##is not ": 4440,
      "##m @-@ ": 4441,
      "##occas": 4442,
      "##within ": 4443,
      "##highest ": 4444,
      "##operations ": 4445,
      "##a to ": 4446,
      "##hill ": 4447,
      "##zeal": 4448,
      "##er @-@ ": 4449,
      "##as of ": 4450,
      "##declar": 4451,
      "##subst": 4452,
      "##known as ": 4453,
      "##particip": 4454,
      "##female ": 4455,
      "##launch": 4456,
      "##ail ": 4457,
      "## thin": 4458,
      "##rick": 4459,
      "##called the ": 4460,
      "##cathedr": 4461,
      "##social ": 4462,
      "##rather": 4463,
      "##daugh": 4464,
      "##is an ": 4465,
      "##an and ": 4466,
      "##clar": 4467,
      "##must ": 4468,
      "##based on ": 4469,
      "##soldi": 4470,
      "##clear": 4471,
      "##espec": 4472,
      "##parliament ": 4473,
      "##dig": 4474,
      "##patt": 4475,
      "##latt": 4476,
      "##0s , ": 4477,
      "##a ) ": 4478,
      "##whom ": 4479,
      "##of the t": 4480,
      "##usually ": 4481,
      "##when he ": 4482,
      "##due to the ": 4483,
      "##damage ": 4484,
      "##pag": 4485,
      "##mitt": 4486,
      "##bay ": 4487,
      "##forest ": 4488,
      "##e their ": 4489,
      "##new zeal": 4490,
      "##peak": 4491,
      "##party ": 4492,
      "##felt": 4493,
      "##emporary ": 4494,
      "##commercial ": 4495,
      "##japanese ": 4496,
      "##bow": 4497,
      "##45 ": 4498,
      "##on t": 4499,
      "##h , ": 4500,
      "##federer ": 4501,
      "##henry ": 4502,
      "##does not ": 4503,
      "##sex": 4504,
      "##hall ": 4505,
      "##band": 4506,
      "## thre": 4507,
      "##err": 4508,
      "##ity to ": 4509,
      "##among the ": 4510,
      "##omet": 4511,
      "##entire ": 4512,
      "##abor": 4513,
      "##problem": 4514,
      "##britain ": 4515,
      "##continued to ": 4516,
      "##crow": 4517,
      "##75 ": 4518,
      "##irish ": 4519,
      "##imp": 4520,
      "##ions , ": 4521,
      "##event ": 4522,
      "##later": 4523,
      "##recording ": 4524,
      "##although the ": 4525,
      "##natural ": 4526,
      "##relationship ": 4527,
      "##70 ": 4528,
      "##injur": 4529,
      "##ed out ": 4530,
      "##three ": 4531,
      "##th @-@ ": 4532,
      "##change ": 4533,
      "##approximately ": 4534,
      "##ed her ": 4535,
      "## to re": 4536,
      "##dram": 4537,
      "##surround": 4538,
      "##since the ": 4539,
      "##a few ": 4540,
      "##earlier ": 4541,
      "##feet ( ": 4542,
      "##title ": 4543,
      "##last": 4544,
      "##31 ": 4545,
      "##38 ": 4546,
      "##igu": 4547,
      "##weak": 4548,
      "##find": 4549,
      "##police ": 4550,
      "##near the ": 4551,
      "##paul ": 4552,
      "##ca": 4553,
      "##co @-@ ": 4554,
      "##35 ": 4555,
      "##o 's ": 4556,
      "##ure of ": 4557,
      "##quart": 4558,
      "##later , ": 4559,
      "##arrang": 4560,
      "##distribut": 4561,
      "##science ": 4562,
      "##depression ": 4563,
      "##available ": 4564,
      "##t and ": 4565,
      "##ac ": 4566,
      "##chron": 4567,
      "##ives ": 4568,
      "##2005 ": 4569,
      "##as a resul": 4570,
      "##meth": 4571,
      "##object": 4572,
      "##. he was ": 4573,
      "##lyric": 4574,
      "##reveal": 4575,
      "##st. ": 4576,
      "##whose ": 4577,
      "##extr": 4578,
      "## tru": 4579,
      "##2015 ": 4580,
      "##media ": 4581,
      "##mid @-@ ": 4582,
      "##lou": 4583,
      "##quest": 4584,
      "##ances ": 4585,
      "##respond": 4586,
      "##frequ": 4587,
      "##additional ": 4588,
      "##regiment ": 4589,
      "##nar": 4590,
      "##rach": 4591,
      "##sound ": 4592,
      "##already ": 4593,
      "##asp": 4594,
      "##brought ": 4595,
      "##pool ": 4596,
      "##cathol": 4597,
      "##civil ": 4598,
      "##iii ": 4599,
      "##rad": 4600,
      "##xen": 4601,
      "##member ": 4602,
      "##erous ": 4603,
      "##arily ": 4604,
      "##review ": 4605,
      "##itud": 4606,
      "##o '": 4607,
      "##asc": 4608,
      "##comed": 4609,
      "##may": 4610,
      "##debut ": 4611,
      "##command ": 4612,
      "##year , ": 4613,
      "##polic": 4614,
      "##a sm": 4615,
      "##community ": 4616,
      "##creek ": 4617,
      "##playing ": 4618,
      "##oldham ": 4619,
      "##canadian ": 4620,
      "##bridge ": 4621,
      "##nearly ": 4622,
      "##90 ": 4623,
      "##log": 4624,
      "##on and ": 4625,
      "##was re": 4626,
      "##earth ": 4627,
      "##active ": 4628,
      "##3 – ": 4629,
      "##find ": 4630,
      "##in 194": 4631,
      "##reduc": 4632,
      "## territ": 4633,
      "##indian ": 4634,
      "##ff ": 4635,
      "##hard": 4636,
      "##ville ": 4637,
      "##might ": 4638,
      "##a . the ": 4639,
      "##al @-@ ": 4640,
      "##s . in ": 4641,
      "##move ": 4642,
      "##eat": 4643,
      "##length ": 4644,
      "##bs ": 4645,
      "##kar": 4646,
      "##chem": 4647,
      "##lower ": 4648,
      "##elling ": 4649,
      "##a sing": 4650,
      "##captain ": 4651,
      "##christian ": 4652,
      "##cle ": 4653,
      "##cell": 4654,
      "##mu": 4655,
      "## tre": 4656,
      "##t 's ": 4657,
      "##as , ": 4658,
      "##edition ": 4659,
      "##e , but ": 4660,
      "##uck ": 4661,
      "##ordin": 4662,
      "##region ": 4663,
      "##saw ": 4664,
      "##aries ": 4665,
      "##acqu": 4666,
      "##ess , ": 4667,
      "##chest": 4668,
      "##conf": 4669,
      "##oph": 4670,
      "##it , ": 4671,
      "##quick": 4672,
      "##order to ": 4673,
      "##off the ": 4674,
      "##him to ": 4675,
      "##studio ": 4676,
      "##museum ": 4677,
      "##gro": 4678,
      "##sin": 4679,
      "##yard": 4680,
      "##will": 4681,
      "##ul ": 4682,
      "##ster ": 4683,
      "##acy ": 4684,
      "##antly ": 4685,
      "##flow": 4686,
      "##mort": 4687,
      "##ultim": 4688,
      "##ference ": 4689,
      "##protest": 4690,
      "##standing ": 4691,
      "##radio ": 4692,
      "##department ": 4693,
      "##sometimes ": 4694,
      "##san ": 4695,
      "##cover ": 4696,
      "##plot ": 4697,
      "##186": 4698,
      "##185": 4699,
      "##side the ": 4700,
      "##son , ": 4701,
      "##could be ": 4702,
      "##front ": 4703,
      "##chinese ": 4704,
      "##itself ": 4705,
      "##al of ": 4706,
      "##olymp": 4707,
      "##ray ": 4708,
      "##based ": 4709,
      "##into a ": 4710,
      "##jordan ": 4711,
      "## together ": 4712,
      "##ied ": 4713,
      "##dum": 4714,
      "##alli": 4715,
      "##on september ": 4716,
      "##exper": 4717,
      "##feel": 4718,
      "##interest": 4719,
      "##comput": 4720,
      "##stories ": 4721,
      "##selv": 4722,
      "##complete ": 4723,
      "##, that ": 4724,
      "##ric ": 4725,
      "##round ": 4726,
      "##3r": 4727,
      "##it 's ": 4728,
      "##sea ": 4729,
      "##contrac": 4730,
      "##ains ": 4731,
      "##fru": 4732,
      "##journ": 4733,
      "##gh": 4734,
      "##sh ": 4735,
      "##hot": 4736,
      "##ator": 4737,
      "##edit": 4738,
      "##an un": 4739,
      "##norm": 4740,
      "##charg": 4741,
      "##minor ": 4742,
      "##speak": 4743,
      "##ry": 4744,
      "##dict": 4745,
      "##oking ": 4746,
      "##bat": 4747,
      "##edge ": 4748,
      "##proper": 4749,
      "##ational ": 4750,
      "##writer ": 4751,
      "##such as the ": 4752,
      "##approach": 4753,
      "##especially ": 4754,
      "##ded": 4755,
      "##oid ": 4756,
      "##hus": 4757,
      "##hann": 4758,
      "##vot": 4759,
      "##etic ": 4760,
      "##intell": 4761,
      "##i '": 4762,
      "##pret": 4763,
      "##engag": 4764,
      "##musical ": 4765,
      "##most of the ": 4766,
      "##syl": 4767,
      "##cross": 4768,
      "##positive ": 4769,
      "##engine": 4770,
      "##religious ": 4771,
      "##guitar hero ": 4772,
      "##sar": 4773,
      "##hun": 4774,
      "##? ": 4775,
      "##s on the ": 4776,
      "##anz": 4777,
      "##ones ": 4778,
      "##on their ": 4779,
      "##ing on ": 4780,
      "##fore": 4781,
      "##plan ": 4782,
      "##project": 4783,
      "##strat": 4784,
      "##capital ": 4785,
      "##\" , \" ": 4786,
      "##schol": 4787,
      "##horse ": 4788,
      "##elebr": 4789,
      "##wr": 4790,
      "##uk ": 4791,
      "##jin ": 4792,
      "##, with ": 4793,
      "##alist ": 4794,
      "##haif": 4795,
      "##strong": 4796,
      "##s . \" ": 4797,
      "##carol": 4798,
      "##who was ": 4799,
      "##look": 4800,
      "##itional ": 4801,
      "##condom": 4802,
      "##controll": 4803,
      "##sens": 4804,
      "##jos": 4805,
      "##ino": 4806,
      "##ed him ": 4807,
      "##and then ": 4808,
      "##conclud": 4809,
      "##manu": 4810,
      "##s . he ": 4811,
      "##. it is ": 4812,
      "##discuss": 4813,
      "##pacific ": 4814,
      "##private ": 4815,
      "##probably ": 4816,
      "##ga": 4817,
      "##as it ": 4818,
      "##at least ": 4819,
      "##units ": 4820,
      "##rav": 4821,
      "##rain ": 4822,
      "##counter": 4823,
      "##suppl": 4824,
      "##georg": 4825,
      "##leading ": 4826,
      "##deliv": 4827,
      "##califor": 4828,
      "##rend": 4829,
      "##sov": 4830,
      "##eding ": 4831,
      "##learn": 4832,
      "##finally ": 4833,
      "##child ": 4834,
      "##victor": 4835,
      "##similar ": 4836,
      "##behind ": 4837,
      "##croat": 4838,
      "##aer": 4839,
      "##gold": 4840,
      "##pun": 4841,
      "##past ": 4842,
      "##e , the ": 4843,
      "##isra": 4844,
      "##escap": 4845,
      "##@-@ yard ": 4846,
      "##perf": 4847,
      "##firm": 4848,
      "##188": 4849,
      "##goal": 4850,
      "##advanc": 4851,
      "##returned to ": 4852,
      "##subsequently ": 4853,
      "##3rd ": 4854,
      "##ner ": 4855,
      "##ga ": 4856,
      "##saint ": 4857,
      "##ped": 4858,
      "##amb": 4859,
      "##chic": 4860,
      "##imm": 4861,
      "##i ( ": 4862,
      "##some": 4863,
      "##joy": 4864,
      "##reached ": 4865,
      "##fest": 4866,
      "##pian": 4867,
      "##celebr": 4868,
      "##forward ": 4869,
      "##ired ": 4870,
      "##ount ": 4871,
      "##ations , ": 4872,
      "##watch": 4873,
      "##works ": 4874,
      "##association ": 4875,
      "##certain ": 4876,
      "##crick": 4877,
      "##scul": 4878,
      "##flight ": 4879,
      "##2003 ": 4880,
      "##charles ": 4881,
      "##ance of ": 4882,
      "##opening ": 4883,
      "##experience ": 4884,
      "##rachel ": 4885,
      "##mol": 4886,
      "##bird ": 4887,
      "##wic": 4888,
      "##ker ": 4889,
      "##. the t": 4890,
      "##) in ": 4891,
      "##all @-@ ": 4892,
      "##a single ": 4893,
      "##dan": 4894,
      "##penn": 4895,
      "##hou": 4896,
      "##ks ": 4897,
      "##elements ": 4898,
      "##ison ": 4899,
      "##ion and ": 4900,
      "##ota ": 4901,
      "##qual": 4902,
      "##not be ": 4903,
      "##franc": 4904,
      "##secut": 4905,
      "##defend": 4906,
      "##mountain ": 4907,
      "##galvest": 4908,
      "##billboard ": 4909,
      "##ing with ": 4910,
      "##stated that ": 4911,
      "##success ": 4912,
      "##detail": 4913,
      "##study ": 4914,
      "##woman ": 4915,
      "##primary ": 4916,
      "##rough": 4917,
      "##uce ": 4918,
      "##e is ": 4919,
      "##refus": 4920,
      "##ic , ": 4921,
      "##whit": 4922,
      "##ades ": 4923,
      "##dead ": 4924,
      "##web": 4925,
      "##upper ": 4926,
      "##hib": 4927,
      "##where he ": 4928,
      "##equip": 4929,
      "##professional ": 4930,
      "##nel ": 4931,
      "##mom": 4932,
      "##ugu": 4933,
      "##, and the ": 4934,
      "##atory ": 4935,
      "##icle ": 4936,
      "##of \" ": 4937,
      "##adapt": 4938,
      "##confl": 4939,
      "##bud": 4940,
      "##span": 4941,
      "##spap": 4942,
      "##ers in ": 4943,
      "##financ": 4944,
      "##better ": 4945,
      "## taken ": 4946,
      "##newspap": 4947,
      "##revolut": 4948,
      "##written by ": 4949,
      "##program ": 4950,
      "##mas": 4951,
      "##ken ": 4952,
      "##s was ": 4953,
      "##rob": 4954,
      "##administr": 4955,
      "##new zealand ": 4956,
      "##californ": 4957,
      "## television ": 4958,
      "##e , a ": 4959,
      "##aff ": 4960,
      "##4 – ": 4961,
      "##care": 4962,
      "##interest ": 4963,
      "##day , ": 4964,
      "##cut ": 4965,
      "##birds ": 4966,
      "##current ": 4967,
      "##competition ": 4968,
      "##fifth ": 4969,
      "## than the ": 4970,
      "##hold ": 4971,
      "##mit": 4972,
      "##they ": 4973,
      "##igr": 4974,
      "##ayl": 4975,
      "##overall ": 4976,
      "##erson ": 4977,
      "##mey": 4978,
      "##memor": 4979,
      "##expect": 4980,
      "##shortly ": 4981,
      "##festiv": 4982,
      "##nb": 4983,
      "##matt": 4984,
      "##win": 4985,
      "##es \" ": 4986,
      "##agon": 4987,
      "##ability ": 4988,
      "##close ": 4989,
      "##have a ": 4990,
      "##provide ": 4991,
      "##los ": 4992,
      "##city of ": 4993,
      "##album , ": 4994,
      "##was to ": 4995,
      "##largely ": 4996,
      "##castle ": 4997,
      "##night": 4998,
      "##lay": 4999,
      "##ald ": 5000,
      "##stev": 5001,
      "##ings , ": 5002,
      "##ably ": 5003,
      "##anti @-@ ": 5004,
      "##secret": 5005,
      "##artill": 5006,
      "##’ s ": 5007,
      "##cathedral ": 5008,
      "##rather than ": 5009,
      "##ials ": 5010,
      "##, this ": 5011,
      "##drop": 5012,
      "##barr": 5013,
      "##5th ": 5014,
      "##er in ": 5015,
      "##earth": 5016,
      "##ump": 5017,
      "##block": 5018,
      "##6 @.@ ": 5019,
      "##phot": 5020,
      "##crew ": 5021,
      "##office ": 5022,
      "##popular": 5023,
      "##caused ": 5024,
      "##history = =  ": 5025,
      "##said that ": 5026,
      "##network ": 5027,
      "##commission": 5028,
      "##r. ": 5029,
      "##sear": 5030,
      "##lu": 5031,
      "##bar ": 5032,
      "##for their ": 5033,
      "##it . ": 5034,
      "##i was ": 5035,
      "##person ": 5036,
      "##anti": 5037,
      "##ia and ": 5038,
      "##health ": 5039,
      "##e they ": 5040,
      "##coast": 5041,
      "##archit": 5042,
      "##greatest ": 5043,
      "##business ": 5044,
      "##investig": 5045,
      "##section ": 5046,
      "##male ": 5047,
      "##of th": 5048,
      "##rose": 5049,
      "##\" a ": 5050,
      "##chann": 5051,
      "##antim": 5052,
      "##pre @-@ ": 5053,
      "##press ": 5054,
      "##ength": 5055,
      "##numbers ": 5056,
      "##recorded ": 5057,
      "##double ": 5058,
      "##determin": 5059,
      "##florida ": 5060,
      "##, then ": 5061,
      "##yel": 5062,
      "##hand ": 5063,
      "##hot ": 5064,
      "##hund": 5065,
      "##wall ": 5066,
      "##accoun": 5067,
      "##ention ": 5068,
      "##promis": 5069,
      "##brad": 5070,
      "##protect": 5071,
      "##mention": 5072,
      "##richard ": 5073,
      "##jewish ": 5074,
      "##send ": 5075,
      "##election ": 5076,
      "##island": 5077,
      "##ental ": 5078,
      "##and their ": 5079,
      "##conserv": 5080,
      "##cret": 5081,
      "##someth": 5082,
      "##america ": 5083,
      "##wales ": 5084,
      "##manager ": 5085,
      "##purchas": 5086,
      "##friend ": 5087,
      "##entertain": 5088,
      "##decided to ": 5089,
      "##quarter ": 5090,
      "##mostly ": 5091,
      "## troop": 5092,
      "##a new ": 5093,
      "##chall": 5094,
      "##his first ": 5095,
      "##boy": 5096,
      "##movement ": 5097,
      "##field": 5098,
      "##nix": 5099,
      "##headquart": 5100,
      "##attempt to ": 5101,
      "##funct": 5102,
      "##free ": 5103,
      "##here ": 5104,
      "##ert": 5105,
      "##ated to ": 5106,
      "## time , ": 5107,
      "##divis": 5108,
      "##associated ": 5109,
      "##however , the ": 5110,
      "##average ": 5111,
      "##ns ": 5112,
      "##als , ": 5113,
      "##staff ": 5114,
      "##in and ": 5115,
      "##room": 5116,
      "##en and ": 5117,
      "##ffic ": 5118,
      "##sched": 5119,
      "##liver": 5120,
      "## themselv": 5121,
      "##necess": 5122,
      "##daughter ": 5123,
      "##xenon ": 5124,
      "##challeng": 5125,
      "##ne ": 5126,
      "##wis": 5127,
      "##a is ": 5128,
      "##and to ": 5129,
      "##ions . ": 5130,
      "##actor ": 5131,
      "##sian ": 5132,
      "##ack of ": 5133,
      "##teen ": 5134,
      "##running ": 5135,
      "##explain": 5136,
      "##machine ": 5137,
      "##mexico ": 5138,
      "##ies": 5139,
      "##fan": 5140,
      "##cav": 5141,
      "##. two ": 5142,
      "##e in the ": 5143,
      "##always ": 5144,
      "##ed by": 5145,
      "##rein": 5146,
      "##of which ": 5147,
      "##chos": 5148,
      "##aband": 5149,
      "##with an ": 5150,
      "##contemporary ": 5151,
      "##despit": 5152,
      "##e to be ": 5153,
      "##side of the ": 5154,
      "##bert": 5155,
      "##university of ": 5156,
      "##voic": 5157,
      "##mounted ": 5158,
      "##favor": 5159,
      "##quickly ": 5160,
      "##ipl": 5161,
      "##fill": 5162,
      "##ez ": 5163,
      "##mcc": 5164,
      "##kor": 5165,
      "##ino ": 5166,
      "##ership ": 5167,
      "##onym": 5168,
      "##it the ": 5169,
      "##eck": 5170,
      "##uni": 5171,
      "##opin": 5172,
      "##space ": 5173,
      "##resid": 5174,
      "##game 's ": 5175,
      "##stars ": 5176,
      "##advant": 5177,
      "##organis": 5178,
      "##summer ": 5179,
      "##a small ": 5180,
      "##dedic": 5181,
      "##to the ": 5182,
      "##co ": 5183,
      "##cand": 5184,
      "##37 ": 5185,
      "## ton": 5186,
      "##energ": 5187,
      "##refl": 5188,
      "##of its ": 5189,
      "##conference ": 5190,
      "##some of the ": 5191,
      "##direct ": 5192,
      "##critics ": 5193,
      "##document": 5194,
      "##, two ": 5195,
      "##dail": 5196,
      "##sun ": 5197,
      "##ub": 5198,
      "##ung ": 5199,
      "##adopt": 5200,
      "##about": 5201,
      "##ers of the ": 5202,
      "##ody ": 5203,
      "##2014 ": 5204,
      "##casu": 5205,
      "##independent ": 5206,
      "##bishop ": 5207,
      "##industry ": 5208,
      "##fant": 5209,
      "##rar": 5210,
      "## tor": 5211,
      "##a in ": 5212,
      "##stag": 5213,
      "##and two ": 5214,
      "##bran": 5215,
      "##og ": 5216,
      "##187": 5217,
      "##indu": 5218,
      "##album": 5219,
      "##explor": 5220,
      "##felt ": 5221,
      "##navy ": 5222,
      "##first time ": 5223,
      "##influence ": 5224,
      "##fowl": 5225,
      "##rate ": 5226,
      "##gav": 5227,
      "##sevent": 5228,
      "##bank": 5229,
      "##ars ": 5230,
      "##stra": 5231,
      "##stay ": 5232,
      "##er .  ": 5233,
      "##ure . ": 5234,
      "##appe": 5235,
      "##, the t": 5236,
      "##attend": 5237,
      "##back to ": 5238,
      "##keep": 5239,
      "##each other ": 5240,
      "##management ": 5241,
      "##queen ": 5242,
      "##future ": 5243,
      "##sylvan": 5244,
      "##gard": 5245,
      "##ky": 5246,
      "##39 ": 5247,
      "##ond ": 5248,
      "##read ": 5249,
      "##ing from ": 5250,
      "## their": 5251,
      "##rect": 5252,
      "##boy ": 5253,
      "##performanc": 5254,
      "##bridg": 5255,
      "##virgin": 5256,
      "##iel": 5257,
      "##6th ": 5258,
      "##lis": 5259,
      "## tit": 5260,
      "##ened ": 5261,
      "##enth ": 5262,
      "##2 @,@ ": 5263,
      "##poor ": 5264,
      "##cost": 5265,
      "##stein ": 5266,
      "##red the ": 5267,
      "## teach": 5268,
      "##wanted to ": 5269,
      "##farm": 5270,
      "##bomb": 5271,
      "## tour ": 5272,
      "##alice ": 5273,
      "## , who ": 5274,
      "##adel": 5275,
      "##entr": 5276,
      "##andre": 5277,
      "##spent ": 5278,
      "##artist ": 5279,
      "##money ": 5280,
      "##poly": 5281,
      "##egypt": 5282,
      "##according to the ": 5283,
      "##initi": 5284,
      "##square ": 5285,
      "##script": 5286,
      "##both the ": 5287,
      "##sovi": 5288,
      "##artillery ": 5289,
      "##lake ": 5290,
      "##jack ": 5291,
      "##anas": 5292,
      "##one , ": 5293,
      "##. as ": 5294,
      "##ionally ": 5295,
      "##create ": 5296,
      "##known": 5297,
      "##access": 5298,
      "##corp": 5299,
      "##mixed ": 5300,
      "##nations ": 5301,
      "##car ": 5302,
      "##jul": 5303,
      "##400 ": 5304,
      "##36 ": 5305,
      "##on august ": 5306,
      "##ing on the ": 5307,
      "##ed that": 5308,
      "##ess of ": 5309,
      "##whole ": 5310,
      "##reserv": 5311,
      "##ity of the ": 5312,
      "##weap": 5313,
      "##land , ": 5314,
      "##appear ": 5315,
      "##draw ": 5316,
      "##controvers": 5317,
      "##remained ": 5318,
      "##started ": 5319,
      "##standard ": 5320,
      "##initial ": 5321,
      "##personal ": 5322,
      "##greater ": 5323,
      "##sixth ": 5324,
      "##spanish ": 5325,
      "##ran ": 5326,
      "##yet ": 5327,
      "##your ": 5328,
      "##hit ": 5329,
      "##big ": 5330,
      "##impl": 5331,
      "##clim": 5332,
      "##ers .  ": 5333,
      "##rest of the ": 5334,
      "##ground": 5335,
      "##annual ": 5336,
      "##up the ": 5337,
      "##polish ": 5338,
      "##story": 5339,
      "##number": 5340,
      "##select": 5341,
      "##rule ": 5342,
      "##feature ": 5343,
      "##purpos": 5344,
      "##volum": 5345,
      "##analys": 5346,
      "##c. ": 5347,
      "##bos": 5348,
      "##. by ": 5349,
      "##isl": 5350,
      "## , and the ": 5351,
      "##ed two ": 5352,
      "##unable to ": 5353,
      "##she": 5354,
      "##diam": 5355,
      "##ation .  ": 5356,
      "##deb": 5357,
      "##guid": 5358,
      "##ancient ": 5359,
      "##ft ) ": 5360,
      "##historical ": 5361,
      "##christm": 5362,
      "##busch ": 5363,
      "##companies ": 5364,
      "##positions ": 5365,
      "##squadron ": 5366,
      "##spl": 5367,
      "##pin": 5368,
      "##bill ": 5369,
      "##4th ": 5370,
      "##ana ": 5371,
      "##ster": 5372,
      "##on his ": 5373,
      "##esh": 5374,
      "##e two ": 5375,
      "##2001 ": 5376,
      "##latin ": 5377,
      "##somer": 5378,
      "##intern": 5379,
      "##return ": 5380,
      "##lock ": 5381,
      "##because of ": 5382,
      "##human": 5383,
      "##larger ": 5384,
      "##grav": 5385,
      "##source ": 5386,
      "##cyclone ": 5387,
      "##susp": 5388,
      "##th century , ": 5389,
      "##roseber": 5390,
      "##dj": 5391,
      "##pt ": 5392,
      "##\" to ": 5393,
      "##47 ": 5394,
      "## thought": 5395,
      "##enem": 5396,
      "##remov": 5397,
      "##restor": 5398,
      "##ly , ": 5399,
      "##hair": 5400,
      "## today ": 5401,
      "##mix ": 5402,
      "##wash": 5403,
      "##distinc": 5404,
      "##valu": 5405,
      "##ottom": 5406,
      "##front": 5407,
      "##respons": 5408,
      "##members of the ": 5409,
      "##broadcast ": 5410,
      "##beyonce ": 5411,
      "##assembly ": 5412,
      "##pennsylvan": 5413,
      "##pict": 5414,
      "##canc": 5415,
      "##bell": 5416,
      "##kak": 5417,
      "## t ": 5418,
      "##ing this ": 5419,
      "##ica ": 5420,
      "##element": 5421,
      "##s , including ": 5422,
      "##occurr": 5423,
      "##deep ": 5424,
      "##are the ": 5425,
      "##diseas": 5426,
      "##peak ": 5427,
      "##divid": 5428,
      "##was the first ": 5429,
      "##students ": 5430,
      "##influenc": 5431,
      "##estimated ": 5432,
      "##language ": 5433,
      "##contract ": 5434,
      "##bour": 5435,
      "##brow": 5436,
      "##wint": 5437,
      "##48 ": 5438,
      "##+ ": 5439,
      "##es from ": 5440,
      "##ety of ": 5441,
      "##left": 5442,
      "##promin": 5443,
      "##e , \" ": 5444,
      "##grand": 5445,
      "##5 @.@ ": 5446,
      "##produced ": 5447,
      "##mission ": 5448,
      "##demon": 5449,
      "##voice ": 5450,
      "##referred to ": 5451,
      "##constitut": 5452,
      "##has": 5453,
      "##e for ": 5454,
      "##rep": 5455,
      "##in ( ": 5456,
      "##ing at ": 5457,
      "##aged ": 5458,
      "## to their ": 5459,
      "##maxim": 5460,
      "##miam": 5461,
      "##church of ": 5462,
      "##will be ": 5463,
      "##cross ": 5464,
      "##countri": 5465,
      "##mosley ": 5466,
      "##african ": 5467,
      "##emperat": 5468,
      "##individual ": 5469,
      "##material ": 5470,
      "##ran": 5471,
      "##slow": 5472,
      "##33 ": 5473,
      "##along": 5474,
      "##impress": 5475,
      "##let ": 5476,
      "##) was ": 5477,
      "##um , ": 5478,
      "##actions ": 5479,
      "##a total ": 5480,
      "##ype ": 5481,
      "## throughout ": 5482,
      "##key": 5483,
      "##hood ": 5484,
      "##club": 5485,
      "##village ": 5486,
      "##destin": 5487,
      "##activity ": 5488,
      "##veh": 5489,
      "##dun": 5490,
      "##s that the ": 5491,
      "##led to ": 5492,
      "##van ": 5493,
      "##insul": 5494,
      "##in its ": 5495,
      "##andy ": 5496,
      "##somal": 5497,
      "##in 190": 5498,
      "##son 's ": 5499,
      "##good": 5500,
      "##addition ": 5501,
      "##break ": 5502,
      "##wrote that ": 5503,
      "##pursu": 5504,
      "##peter ": 5505,
      "##months ": 5506,
      "## travel": 5507,
      "##lady ": 5508,
      "##responsible ": 5509,
      "##ble": 5510,
      "##7th ": 5511,
      "##accompan": 5512,
      "##shir": 5513,
      "##inters": 5514,
      "##i . ": 5515,
      "##ocean ": 5516,
      "##deal ": 5517,
      "##man , ": 5518,
      "##possess": 5519,
      "##2016 ": 5520,
      "##lines ": 5521,
      "##highly ": 5522,
      "##legal ": 5523,
      "##communic": 5524,
      "##affect": 5525,
      "##nuclear ": 5526,
      "##galveston ": 5527,
      "##fish ": 5528,
      "##. to ": 5529,
      "##ing that the ": 5530,
      "##unit": 5531,
      "##emple ": 5532,
      "##eway ": 5533,
      "##marine ": 5534,
      "##assa": 5535,
      "##chart": 5536,
      "##well @-@ ": 5537,
      "##had to ": 5538,
      "##limited ": 5539,
      "##civil": 5540,
      "##defeated ": 5541,
      "##kilomet": 5542,
      "##did": 5543,
      "##done ": 5544,
      "##gall": 5545,
      "##kit": 5546,
      "##instr": 5547,
      "##really ": 5548,
      "##into": 5549,
      "##blood ": 5550,
      "##2000 ": 5551,
      "##prince ": 5552,
      "##box ": 5553,
      "##a tropical ": 5554,
      "##numerous ": 5555,
      "##ography ": 5556,
      "##shoot": 5557,
      "##chief ": 5558,
      "##immediately ": 5559,
      "##industri": 5560,
      "##narr": 5561,
      "##cut": 5562,
      "##bed": 5563,
      "##32 ": 5564,
      "##ed with a ": 5565,
      "##itive ": 5566,
      "##stadi": 5567,
      "##rom": 5568,
      "##opport": 5569,
      "##it of ": 5570,
      "##abb": 5571,
      "##af ": 5572,
      "##grant": 5573,
      "##ia . ": 5574,
      "##awards ": 5575,
      "##offensive ": 5576,
      "##coach ": 5577,
      "##match": 5578,
      "##advance ": 5579,
      "##bird": 5580,
      "##experienc": 5581,
      "##dark ": 5582,
      "##cadmi": 5583,
      "##cruis": 5584,
      "##lett": 5585,
      "##erbe": 5586,
      "##envir": 5587,
      "##appar": 5588,
      "##defeat": 5589,
      "##facil": 5590,
      "##like the ": 5591,
      "##do not ": 5592,
      "##somerset ": 5593,
      "##astr": 5594,
      "##pay": 5595,
      "##coug": 5596,
      "##hill": 5597,
      "##ver ": 5598,
      "##bound": 5599,
      "##wind ": 5600,
      "##shiv": 5601,
      "##lege ": 5602,
      "##ic and ": 5603,
      "##if the ": 5604,
      "##poet": 5605,
      "##pho": 5606,
      "##college ": 5607,
      "##2010 , ": 5608,
      "##s to be ": 5609,
      "##season": 5610,
      "##pop ": 5611,
      "##metres ( ": 5612,
      "##nearby ": 5613,
      "##advent": 5614,
      "##particular ": 5615,
      "##york": 5616,
      "##femal": 5617,
      "##olivier ": 5618,
      "##winning ": 5619,
      "##kakap": 5620,
      "##11": 5621,
      "##ding ": 5622,
      "##jac": 5623,
      "##300 ": 5624,
      "##y @-@ ": 5625,
      "##as he ": 5626,
      "##ace": 5627,
      "##ive , ": 5628,
      "##ag ": 5629,
      "##approv": 5630,
      "##depl": 5631,
      "##ations of ": 5632,
      "##years , ": 5633,
      "##super ": 5634,
      "##directly ": 5635,
      "##valley ": 5636,
      "##braath": 5637,
      "##cultural ": 5638,
      "##society ": 5639,
      "##scientology ": 5640,
      "##liverpool ": 5641,
      "##environ": 5642,
      "##ls ": 5643,
      "## ten ": 5644,
      "##ed into the ": 5645,
      "##of them ": 5646,
      "##a , the ": 5647,
      "##on . ": 5648,
      "##in @-@ ": 5649,
      "##then ": 5650,
      "##behav": 5651,
      "##percent ": 5652,
      " = = =": 5653,
      "##common": 5654,
      "##preserv": 5655,
      "##ards the ": 5656,
      "##color": 5657,
      "##decision ": 5658,
      "##looking ": 5659,
      "##solut": 5660,
      "##latter ": 5661,
      " after ": 5662,
      "##path": 5663,
      "##ine , ": 5664,
      "##republic ": 5665,
      "##stopp": 5666,
      "##chor": 5667,
      "##pleas": 5668,
      "##'s first ": 5669,
      "##: 00 ": 5670,
      "##minnes": 5671,
      "##athan ": 5672,
      "## taking ": 5673,
      "##completely ": 5674,
      "##domest": 5675,
      "##rapid": 5676,
      "## transport": 5677,
      "##individu": 5678,
      "##mph ( ": 5679,
      "##reception = =  ": 5680,
      "##intellig": 5681,
      "##christmas ": 5682,
      "##9th ": 5683,
      "##ae ": 5684,
      "##tri": 5685,
      "##swe": 5686,
      "##on july ": 5687,
      "##expos": 5688,
      "##; and ": 5689,
      "##center ": 5690,
      "##ment of ": 5691,
      "##declin": 5692,
      "##trans": 5693,
      "##smith ": 5694,
      "##market ": 5695,
      "##hurrican": 5696,
      "##widely ": 5697,
      "##tak": 5698,
      "##cel": 5699,
      "##kr": 5700,
      "## title ": 5701,
      "##s at ": 5702,
      "##ed in": 5703,
      "##. at the ": 5704,
      "##es for ": 5705,
      "##emot": 5706,
      "##sust": 5707,
      "##leg ": 5708,
      "##hawa": 5709,
      "##ers ' ": 5710,
      "##rest ": 5711,
      "##recover": 5712,
      "##formed ": 5713,
      "##includes ": 5714,
      "##would have ": 5715,
      "##church": 5716,
      "##race ": 5717,
      "##across ": 5718,
      "##information ": 5719,
      "##chris ": 5720,
      "##meyerbe": 5721,
      "##dy": 5722,
      "##cov": 5723,
      "##wound": 5724,
      "##kin": 5725,
      "## threat": 5726,
      "##was \" ": 5727,
      "##admir": 5728,
      "##by a ": 5729,
      "##ies . ": 5730,
      "##attract": 5731,
      "##weight ": 5732,
      "##specim": 5733,
      "##bott": 5734,
      "##singles ": 5735,
      "##mental ": 5736,
      " = =": 5737,
      "##activities ": 5738,
      "##culture ": 5739,
      "##erefor": 5740,
      "##girl ": 5741,
      "##sourc": 5742,
      "##candid": 5743,
      "##casualt": 5744,
      "##aen": 5745,
      "##rical ": 5746,
      "##saw": 5747,
      "##hem": 5748,
      "##. that ": 5749,
      "##wick": 5750,
      "##us and ": 5751,
      "##incorpor": 5752,
      "##. when ": 5753,
      "##a , and ": 5754,
      "##ics , ": 5755,
      "##es to the ": 5756,
      "##shown ": 5757,
      "##strict": 5758,
      "##allow ": 5759,
      "##finkel": 5760,
      "##decis": 5761,
      "##ownsend ": 5762,
      "##state of ": 5763,
      "##described the ": 5764,
      "##described as ": 5765,
      "##walpol": 5766,
      "##scored ": 5767,
      "##echni": 5768,
      "##heavily ": 5769,
      "##defeat ": 5770,
      "##opportun": 5771,
      "##lord ": 5772,
      "##inch": 5773,
      "##confirm": 5774,
      "##recent ": 5775,
      "##ument ": 5776,
      "##ence , ": 5777,
      "##ency ": 5778,
      "##extend": 5779,
      "##court": 5780,
      "##historic ": 5781,
      "##zhou ": 5782,
      "##abandon": 5783,
      "##ating the ": 5784,
      "##report ": 5785,
      "##ingu": 5786,
      "##ing an ": 5787,
      "##thr": 5788,
      "##thing ": 5789,
      "##ase ": 5790,
      "##edly ": 5791,
      "##hait": 5792,
      "##) , the ": 5793,
      "##ers ( ": 5794,
      "##strength ": 5795,
      "##illino": 5796,
      "##boat ": 5797,
      "##offer": 5798,
      "##ologist ": 5799,
      "##fox ": 5800,
      "##developed ": 5801,
      "##crus": 5802,
      "##cours": 5803,
      "##excav": 5804,
      "##process ": 5805,
      "##appointed ": 5806,
      "##education ": 5807,
      "##cadmium ": 5808,
      "##ez": 5809,
      "##hind": 5810,
      "##mm ) ": 5811,
      "##stand ": 5812,
      "##icip": 5813,
      "##gram": 5814,
      "##; he ": 5815,
      "##gust": 5816,
      "##know ": 5817,
      "##. he also ": 5818,
      "##noted that ": 5819,
      "##federal ": 5820,
      "##same tim": 5821,
      "##mi ) ": 5822,
      "##aylor ": 5823,
      "##dropp": 5824,
      "##ai": 5825,
      "##tv ": 5826,
      "##cell ": 5827,
      "##via ": 5828,
      "##mm ": 5829,
      "##mob": 5830,
      "##ket": 5831,
      "##t . ": 5832,
      "##icles ": 5833,
      "##as they ": 5834,
      "##cham": 5835,
      "##advert": 5836,
      "##imin": 5837,
      "##@-@ day ": 5838,
      "##beach ": 5839,
      "##rif": 5840,
      "##died ": 5841,
      "##colleg": 5842,
      "##neigh": 5843,
      "##hip ": 5844,
      "##produce ": 5845,
      "##game , ": 5846,
      "##effort": 5847,
      "##security ": 5848,
      "##sculpt": 5849,
      "##architect": 5850,
      "##tic ": 5851,
      "##dang": 5852,
      "##cin": 5853,
      "##bad": 5854,
      "##ors , ": 5855,
      "##stated ": 5856,
      "## to have ": 5857,
      "##cong": 5858,
      "##for \" ": 5859,
      "##ation to ": 5860,
      "##portray": 5861,
      "##specific ": 5862,
      "##foot ": 5863,
      "##directed by ": 5864,
      "##ification ": 5865,
      "##makes ": 5866,
      "##behind": 5867,
      "##husband ": 5868,
      "##manufact": 5869,
      "##sac": 5870,
      "##wol": 5871,
      "##@-@ up ": 5872,
      "## to take ": 5873,
      "##liber": 5874,
      "##ode ": 5875,
      "##ally": 5876,
      "##illustr": 5877,
      "##portugu": 5878,
      "##airport ": 5879,
      "##became a ": 5880,
      "##increased ": 5881,
      "##independence ": 5882,
      "##n , ": 5883,
      "##aid": 5884,
      "##dal": 5885,
      "##oz": 5886,
      "##hour ": 5887,
      "##ma ": 5888,
      "##bid": 5889,
      "##advis": 5890,
      "##it \" ": 5891,
      "##rainf": 5892,
      "##death": 5893,
      "##perman": 5894,
      "##attribut": 5895,
      "##weather ": 5896,
      "##print": 5897,
      "##poem": 5898,
      "##after a ": 5899,
      "##green ": 5900,
      "##ightly ": 5901,
      "##look ": 5902,
      "##rupt": 5903,
      "##brother ": 5904,
      "##remaining ": 5905,
      "##campaign": 5906,
      "##osaurus ": 5907,
      "##protein ": 5908,
      "##should be ": 5909,
      "##catholic ": 5910,
      "##aid ": 5911,
      "##rhy": 5912,
      "##got": 5913,
      "##ori": 5914,
      "##or the ": 5915,
      "##alab": 5916,
      "##reject": 5917,
      "##ing , and ": 5918,
      "##blu": 5919,
      "##5 – ": 5920,
      "##final": 5921,
      "##neut": 5922,
      "## three @-@ ": 5923,
      "##described ": 5924,
      "##borough ": 5925,
      "##echan": 5926,
      "##author ": 5927,
      "##copies ": 5928,
      "##gradu": 5929,
      "##concert ": 5930,
      "##liter": 5931,
      "##wife ": 5932,
      "##don 't ": 5933,
      "##district ": 5934,
      "##bowl ": 5935,
      "##braathens ": 5936,
      "##aud": 5937,
      "##lic": 5938,
      "##mog": 5939,
      "##kind ": 5940,
      "##alty ": 5941,
      "##ref": 5942,
      "##ed them ": 5943,
      "##'s \" ": 5944,
      "##all , ": 5945,
      "##rich ": 5946,
      "##moved to ": 5947,
      "##based on the ": 5948,
      "##ly the ": 5949,
      "##version of the ": 5950,
      "##condom ": 5951,
      "##burn ": 5952,
      "##expand": 5953,
      "##form of ": 5954,
      "##practic": 5955,
      "##respectively ": 5956,
      "##strateg": 5957,
      "##cricket ": 5958,
      "##ip ": 5959,
      "##ting ": 5960,
      "##sle": 5961,
      "##mount ": 5962,
      "##0th ": 5963,
      "## tal": 5964,
      "##d and ": 5965,
      "##. \" the ": 5966,
      "##il , ": 5967,
      "##\" in ": 5968,
      "##uses ": 5969,
      "##concentr": 5970,
      "##shel": 5971,
      "##e . he ": 5972,
      "##2011 , ": 5973,
      "##e that the ": 5974,
      "##interview": 5975,
      "##athus ": 5976,
      "##cerem": 5977,
      "##william": 5978,
      "##distance ": 5979,
      "##self @-@ ": 5980,
      "##stream ": 5981,
      "##found in ": 5982,
      "##published ": 5983,
      "##level": 5984,
      "##circ": 5985,
      "##foreign ": 5986,
      "##ii , ": 5987,
      "##yank": 5988,
      "##lak": 5989,
      "##men": 5990,
      "##49 ": 5991,
      "##of two ": 5992,
      "##. k": 5993,
      "##es with ": 5994,
      "##assum": 5995,
      "##is and ": 5996,
      "##is of ": 5997,
      "##coming ": 5998,
      "##2 ) ": 5999,
      "##2008 , ": 6000,
      "##frag": 6001,
      "##as a \" ": 6002,
      "##location ": 6003,
      "##encour": 6004,
      "##@-@ time ": 6005,
      "##nature ": 6006,
      "##failed to ": 6007,
      "##concern": 6008,
      "##audience ": 6009,
      "##smaller ": 6010,
      "## ( ": 6011,
      "##hard ": 6012,
      "##lack of ": 6013,
      "##. their ": 6014,
      "## thir": 6015,
      "##enant ": 6016,
      "##ita ": 6017,
      "##it to ": 6018,
      "##es , the ": 6019,
      "##iron ": 6020,
      "##en 's ": 6021,
      "##self": 6022,
      "##german": 6023,
      "##succe": 6024,
      "## traffic ": 6025,
      "##points ": 6026,
      "##likely ": 6027,
      "##range ": 6028,
      "##categ": 6029,
      "##primarily ": 6030,
      "##guns ": 6031,
      "##maintain": 6032,
      "##prevent": 6033,
      "##varanas": 6034,
      "##branch ": 6035,
      "##kakapo ": 6036,
      "##ix ": 6037,
      "##dor": 6038,
      "##dated ": 6039,
      "##lor": 6040,
      "##, in ": 6041,
      "##among": 6042,
      "##odaen": 6043,
      "##actually ": 6044,
      "##helm ": 6045,
      "##loy": 6046,
      "##forced to ": 6047,
      "##continued ": 6048,
      "##camp ": 6049,
      "##combat ": 6050,
      "##th @-@ century ": 6051,
      "##los angel": 6052,
      "##cab": 6053,
      "##mess": 6054,
      "##mass ": 6055,
      "##bowl": 6056,
      "##on october ": 6057,
      "##ions and ": 6058,
      "##. the song ": 6059,
      "##debut": 6060,
      "##were the ": 6061,
      "##e . in ": 6062,
      "##phere ": 6063,
      "##9 @.@ ": 6064,
      "##a sim": 6065,
      "##\" , which ": 6066,
      "##rug": 6067,
      "##time ": 6068,
      "##group of ": 6069,
      "##entertainment ": 6070,
      "##nin": 6071,
      "##dv": 6072,
      "##dyn": 6073,
      "##mechan": 6074,
      "##b. ": 6075,
      "##wy": 6076,
      "##. during the ": 6077,
      "##ing her ": 6078,
      "##ama ": 6079,
      "##ion to the ": 6080,
      "##osl": 6081,
      "##progress": 6082,
      "##exas ": 6083,
      "##ations . ": 6084,
      "##scott": 6085,
      "## trade ": 6086,
      "##poin": 6087,
      "##knowl": 6088,
      "##may have ": 6089,
      "##where they ": 6090,
      "##although": 6091,
      "##collabor": 6092,
      "##naval ": 6093,
      "##aught ": 6094,
      "##oppon": 6095,
      "##drew ": 6096,
      "##separate ": 6097,
      "##nixon ": 6098,
      "##daily ": 6099,
      "##soviet ": 6100,
      "##doug": 6101,
      "##get": 6102,
      "##harr": 6103,
      "##mine ": 6104,
      "##8th ": 6105,
      "##ane": 6106,
      "##recomm": 6107,
      "##es ' ": 6108,
      "##ely , ": 6109,
      "##ionary ": 6110,
      "##19th century ": 6111,
      "##spain ": 6112,
      "##ed to a ": 6113,
      "##flight": 6114,
      "##berg ": 6115,
      "##moving ": 6116,
      "##surfac": 6117,
      "##broken ": 6118,
      "## them to ": 6119,
      "## transfer": 6120,
      "##requi": 6121,
      "##dylan 's ": 6122,
      "##battle of ": 6123,
      "##italian ": 6124,
      "##relief ": 6125,
      "##recogniz": 6126,
      "##wheeler ": 6127,
      "##chicago ": 6128,
      "##mogad": 6129,
      "##eag": 6130,
      "##got ": 6131,
      "##sir ": 6132,
      "##sarn": 6133,
      "##yue ": 6134,
      "##vic": 6135,
      "##wed": 6136,
      "##, as ": 6137,
      "##als": 6138,
      "##ed up ": 6139,
      "##. at ": 6140,
      "##amoun": 6141,
      "##used in ": 6142,
      "##agric": 6143,
      "##sey ": 6144,
      "##strength": 6145,
      "##uments ": 6146,
      "##manchest": 6147,
      "##ated in ": 6148,
      "##rick ": 6149,
      "##link ": 6150,
      "##broth": 6151,
      "##simp": 6152,
      "##united kingdom ": 6153,
      "##mainly ": 6154,
      "##pressure ": 6155,
      "##remains ": 6156,
      "##sequence ": 6157,
      "##longer ": 6158,
      "##prison": 6159,
      "##ottoman ": 6160,
      "##nam ": 6161,
      "##fast": 6162,
      "##sail": 6163,
      "##sr ": 6164,
      "##oid": 6165,
      "##yards ": 6166,
      "##cant": 6167,
      "##vess": 6168,
      "##wear": 6169,
      "##composition ": 6170,
      "##ull ": 6171,
      "##e of a ": 6172,
      "##2009 , ": 6173,
      "##ogen": 6174,
      "##ross ": 6175,
      "##released ": 6176,
      "##city 's ": 6177,
      "##many of the ": 6178,
      "##officially ": 6179,
      "##sports ": 6180,
      "##% of ": 6181,
      "##nesbit": 6182,
      "##multi": 6183,
      "##piano ": 6184,
      "##oke ": 6185,
      "##ler ": 6186,
      "##luc": 6187,
      "##veg": 6188,
      "##j. ": 6189,
      "## thomas ": 6190,
      "##en t": 6191,
      "##enjoy": 6192,
      "##alleg": 6193,
      "##remark": 6194,
      "##step": 6195,
      "## , he ": 6196,
      "##ed this ": 6197,
      "##is now ": 6198,
      "##unk": 6199,
      "##used for ": 6200,
      "##7 – ": 6201,
      "##7 @.@ ": 6202,
      "##frank ": 6203,
      "##corn": 6204,
      "##northeast ": 6205,
      "##villa ": 6206,
      "##currently ": 6207,
      "##earliest ": 6208,
      "##minute ": 6209,
      "##welsh ": 6210,
      "##scotland ": 6211,
      "##agricult": 6212,
      "##i. ": 6213,
      "##sev": 6214,
      "##hunt": 6215,
      "##26": 6216,
      "##e a ": 6217,
      "##er than ": 6218,
      "##orn": 6219,
      "##and they ": 6220,
      "##s . it ": 6221,
      "##b @-@ ": 6222,
      "##notable ": 6223,
      "##song \" ": 6224,
      "##complex ": 6225,
      "##invas": 6226,
      "##defensive ": 6227,
      "##birth ": 6228,
      "##clear ": 6229,
      "##physical ": 6230,
      "##vietnam": 6231,
      "##dumon": 6232,
      "##fat": 6233,
      "##ost": 6234,
      "##hyp": 6235,
      "##lan": 6236,
      "##las ": 6237,
      "##led by ": 6238,
      "##wing ": 6239,
      "##s from the ": 6240,
      "##er t": 6241,
      "##arth": 6242,
      "##. n": 6243,
      "##in ch": 6244,
      "##plant": 6245,
      "##ander": 6246,
      "##prom": 6247,
      "##ump ": 6248,
      " = = history = =  ": 6249,
      "##interview ": 6250,
      "##status ": 6251,
      "##base": 6252,
      "##suppor": 6253,
      "##south of ": 6254,
      "##. this was ": 6255,
      "##sky ": 6256,
      "##defence ": 6257,
      "##collection ": 6258,
      "##brigad": 6259,
      "##argent": 6260,
      "##authorities ": 6261,
      "##figure ": 6262,
      "##powerful ": 6263,
      "##portuguese ": 6264,
      "##mogadish": 6265,
      "##dance ": 6266,
      "##gri": 6267,
      "##cities ": 6268,
      "##les , ": 6269,
      "##unit ": 6270,
      "##. the first ": 6271,
      "##ovic ": 6272,
      "##ation was ": 6273,
      "##dissi": 6274,
      "##specific": 6275,
      "##fix": 6276,
      "##because the ": 6277,
      "##effect ": 6278,
      "##cust": 6279,
      "##japan ": 6280,
      "##relatively ": 6281,
      "##quarter": 6282,
      "##archaeological ": 6283,
      "##screen": 6284,
      "##house": 6285,
      "##financial ": 6286,
      "##california ": 6287,
      "##fantas": 6288,
      "##washington ": 6289,
      "##fell ": 6290,
      "##fair": 6291,
      "##eut": 6292,
      "##push": 6293,
      "##hang": 6294,
      "##) to ": 6295,
      "##jup": 6296,
      "##53 ": 6297,
      "##34 ": 6298,
      "##zo": 6299,
      "##in that ": 6300,
      "##aliz": 6301,
      "##ing .  ": 6302,
      "##emphas": 6303,
      "##lew": 6304,
      "##s , and the ": 6305,
      "##odon ": 6306,
      "##mary": 6307,
      "##creat": 6308,
      "##genus ": 6309,
      "##ions of the ": 6310,
      "##idea ": 6311,
      "##germany ": 6312,
      "##case ": 6313,
      "##horn": 6314,
      "##war , ": 6315,
      "##craz": 6316,
      "##down the ": 6317,
      "##weeks ": 6318,
      "##planet ": 6319,
      "##restaur": 6320,
      "##princip": 6321,
      "##digital ": 6322,
      "##antimony ": 6323,
      "##maximum ": 6324,
      "##finkelstein ": 6325,
      "##advertis": 6326,
      "##dynast": 6327,
      "##gil": 6328,
      "##cost ": 6329,
      "##la ": 6330,
      "##jon": 6331,
      "##kick": 6332,
      "##anonym": 6333,
      "##enough ": 6334,
      "##ar , ": 6335,
      "##ret ": 6336,
      "##repe": 6337,
      "##in order to ": 6338,
      "##agn": 6339,
      "##with her ": 6340,
      "##ers . the ": 6341,
      "##el and ": 6342,
      "##job ": 6343,
      "##subject": 6344,
      "##series , ": 6345,
      "##critic ": 6346,
      "##metal ": 6347,
      "##freeway ": 6348,
      "##issue ": 6349,
      "##drawn ": 6350,
      "##safe ": 6351,
      "##executive ": 6352,
      "##schedul": 6353,
      "##reflect": 6354,
      "##gave the ": 6355,
      "##jupit": 6356,
      "##ness": 6357,
      "##10 , ": 6358,
      "##egr": 6359,
      "##cann": 6360,
      "##lack": 6361,
      "##. according to ": 6362,
      "##er . the ": 6363,
      "##ive t": 6364,
      "##@-@ p": 6365,
      "##word": 6366,
      "##worth ": 6367,
      "##which he ": 6368,
      "##guar": 6369,
      "##s in a ": 6370,
      "##area of ": 6371,
      "##variety of ": 6372,
      "##possibly ": 6373,
      "##fruit ": 6374,
      "##josep": 6375,
      "##golden ": 6376,
      "##perfect ": 6377,
      "##ies to ": 6378,
      "##150 ": 6379,
      "##fly ": 6380,
      "##fish": 6381,
      "##mut": 6382,
      "##wave ": 6383,
      "##kir": 6384,
      "##y .  ": 6385,
      "##reign ": 6386,
      "##stay": 6387,
      "##ing them ": 6388,
      "##rihann": 6389,
      "##for its ": 6390,
      "##for exampl": 6391,
      "##lie ": 6392,
      "##2002 ": 6393,
      "##cardin": 6394,
      "##for the first time ": 6395,
      "##load": 6396,
      "##hero": 6397,
      "##records ": 6398,
      "##period": 6399,
      "##producer ": 6400,
      "##slightly ": 6401,
      "##ceed": 6402,
      "##high @-@ ": 6403,
      "##ed at number ": 6404,
      "##likel": 6405,
      "##much of the ": 6406,
      "##baltim": 6407,
      "##railway ": 6408,
      "## training ": 6409,
      "##method": 6410,
      "##entrance ": 6411,
      "##djed": 6412,
      "##a total of ": 6413,
      "##domestic ": 6414,
      "##odaenathus ": 6415,
      "##gen ": 6416,
      "##mouth ": 6417,
      "##kat": 6418,
      "##kare ": 6419,
      "##q ": 6420,
      "##atop": 6421,
      "##stop ": 6422,
      "## to his ": 6423,
      "##chel": 6424,
      "##image ": 6425,
      "##agu": 6426,
      "##consecut": 6427,
      "##( 199": 6428,
      "##see": 6429,
      "##serious ": 6430,
      "##aware ": 6431,
      "##portra": 6432,
      "##. they were ": 6433,
      "##democ": 6434,
      "##designated ": 6435,
      "##reference ": 6436,
      "##apple": 6437,
      "##research": 6438,
      "##jackson ": 6439,
      "##experim": 6440,
      "##adelph": 6441,
      " during the ": 6442,
      "##ius ": 6443,
      "##aim ": 6444,
      "##g. ": 6445,
      "##42 ": 6446,
      "##alex": 6447,
      "##a large ": 6448,
      "##es that the ": 6449,
      "##urk": 6450,
      "##omah": 6451,
      "##what": 6452,
      "##anderson ": 6453,
      "##bear": 6454,
      "##beaut": 6455,
      "##flying ": 6456,
      "##6 – ": 6457,
      "##guest ": 6458,
      "##placed ": 6459,
      "##city , ": 6460,
      "##medical ": 6461,
      "##c . ": 6462,
      "##wilhelm ": 6463,
      "##magn": 6464,
      "##student ": 6465,
      "##as well as the ": 6466,
      "##politic": 6467,
      "##established ": 6468,
      "## tradition ": 6469,
      "##agreement ": 6470,
      "##constant": 6471,
      "##contains ": 6472,
      "##championship": 6473,
      "##vietnam ": 6474,
      "##impact ": 6475,
      "##something ": 6476,
      "##demonstr": 6477,
      "##nur": 6478,
      "##nev": 6479,
      "##65 ": 6480,
      "##a tr": 6481,
      "##hap": 6482,
      "##hers": 6483,
      "##kg ": 6484,
      "##43 ": 6485,
      "##55 ": 6486,
      "##— the ": 6487,
      "## test": 6488,
      "## tropical ": 6489,
      "##rear ": 6490,
      "##edward ": 6491,
      "##imet": 6492,
      "##convert": 6493,
      "##8 – ": 6494,
      "##cardi": 6495,
      "##e to a ": 6496,
      "##playstation ": 6497,
      "## time . ": 6498,
      "##know": 6499,
      "##movie ": 6500,
      "##base ": 6501,
      "##nament ": 6502,
      "##armed ": 6503,
      "##member": 6504,
      "##music video ": 6505,
      "##example ": 6506,
      "##brief": 6507,
      "##volunt": 6508,
      "##above ": 6509,
      "##comedy ": 6510,
      "##rugby ": 6511,
      "##95 ": 6512,
      "##pa ": 6513,
      "##pass ": 6514,
      "##cm ( ": 6515,
      "##hl ": 6516,
      "##l , ": 6517,
      "##bes": 6518,
      "##\" that ": 6519,
      "##ze ": 6520,
      "##inch ": 6521,
      "##also": 6522,
      "##ators ": 6523,
      "##er , and ": 6524,
      "##\" ) ": 6525,
      "##where": 6526,
      "##convers": 6527,
      "##sud": 6528,
      "##) – ": 6529,
      "##or and ": 6530,
      "##park": 6531,
      "##paris ": 6532,
      "##had not ": 6533,
      "##ated in the ": 6534,
      "##ated by the ": 6535,
      "##scop": 6536,
      "##2013 , ": 6537,
      "##regist": 6538,
      "##underground ": 6539,
      "##start ": 6540,
      "##criticiz": 6541,
      "##had the ": 6542,
      "##electron": 6543,
      "##killed ": 6544,
      "##deriv": 6545,
      "##engineer ": 6546,
      "##ultimately ": 6547,
      "##festival ": 6548,
      "##manufactur": 6549,
      "##fight ": 6550,
      "##care ": 6551,
      "##wish": 6552,
      "## town ": 6553,
      "##ensu": 6554,
      "##alone ": 6555,
      "##starr": 6556,
      "##of her ": 6557,
      "##was an ": 6558,
      "##shr": 6559,
      "##oth ": 6560,
      "##except": 6561,
      "##from his ": 6562,
      "##s of a ": 6563,
      "##ia 's ": 6564,
      "##morning ": 6565,
      "##formul": 6566,
      "## two @-@ ": 6567,
      "##regul": 6568,
      "##drum": 6569,
      "##going to ": 6570,
      "##beli": 6571,
      "##line , ": 6572,
      "##related ": 6573,
      "##could not ": 6574,
      "##newly ": 6575,
      "## term ": 6576,
      "## termin": 6577,
      "##historian ": 6578,
      "##runn": 6579,
      "##published in ": 6580,
      "##authority ": 6581,
      "##finished ": 6582,
      "##growth ": 6583,
      "##alkan ": 6584,
      "##urban ": 6585,
      "##programm": 6586,
      "##olympic ": 6587,
      "##scottish ": 6588,
      "##fash": 6589,
      "##pine ": 6590,
      "##mul": 6591,
      "##math": 6592,
      "##bin": 6593,
      "##wards ": 6594,
      "##us . ": 6595,
      "##km": 6596,
      "## techn": 6597,
      "##s = = =  ": 6598,
      "## though ": 6599,
      "##atmos": 6600,
      "##forest": 6601,
      "##ada ": 6602,
      "##emerg": 6603,
      "##age . ": 6604,
      "##shif": 6605,
      "##ation in ": 6606,
      "##e tak": 6607,
      "##bob ": 6608,
      "##e this ": 6609,
      "##goals ": 6610,
      "##ed , \" ": 6611,
      "##belong": 6612,
      "##novel": 6613,
      "##four @-@ ": 6614,
      "##northwest ": 6615,
      "##because of the ": 6616,
      "##distingu": 6617,
      "##scene ": 6618,
      "##secretary ": 6619,
      "##prominent ": 6620,
      "##stadium ": 6621,
      "##joseph ": 6622,
      "##djedkare ": 6623,
      "##600 ": 6624,
      "##ao ": 6625,
      "##ro ": 6626,
      "##gain": 6627,
      "##h. ": 6628,
      "##44 ": 6629,
      "##ening ": 6630,
      "##. although ": 6631,
      "##er in the ": 6632,
      "##es on ": 6633,
      "##beat": 6634,
      "##, the first ": 6635,
      "##ed the song ": 6636,
      "##acting ": 6637,
      "##with their ": 6638,
      "##2007 , ": 6639,
      "##interpret": 6640,
      "##guil": 6641,
      "##writers ": 6642,
      "##@,@ 000": 6643,
      "##rub": 6644,
      "##invit": 6645,
      "##extens": 6646,
      "##nois": 6647,
      "##range of ": 6648,
      "##allowed ": 6649,
      "##paid ": 6650,
      "##baby ": 6651,
      "##philos": 6652,
      "##rush": 6653,
      "##eratop": 6654,
      "##andrew ": 6655,
      "##say ": 6656,
      "## town": 6657,
      "##ings . ": 6658,
      "##chen ": 6659,
      "##consum": 6660,
      "##shire ": 6661,
      "##intin ": 6662,
      "##mary ": 6663,
      "##position": 6664,
      "##display": 6665,
      "##2012 , ": 6666,
      "##special": 6667,
      "##season . ": 6668,
      "##defens": 6669,
      "##attempted to ": 6670,
      "##fung": 6671,
      "##limit": 6672,
      "##married ": 6673,
      "##applic": 6674,
      "##benef": 6675,
      "##measur": 6676,
      "##economic ": 6677,
      "## think ": 6678,
      "##aspect": 6679,
      "##molec": 6680,
      "##equipment ": 6681,
      "##casualties ": 6682,
      "##behind the ": 6683,
      "##ahead ": 6684,
      "##fred": 6685,
      "##gn": 6686,
      "##call ": 6687,
      "##m. ": 6688,
      "##eries ": 6689,
      "##onto ": 6690,
      "##restrict": 6691,
      "##ici": 6692,
      "##esis ": 6693,
      "##ion that ": 6694,
      "##or of the ": 6695,
      "## took": 6696,
      "##deities ": 6697,
      "##quality ": 6698,
      "##ations and ": 6699,
      "##blo": 6700,
      "##bern": 6701,
      "##going ": 6702,
      "##devot": 6703,
      "##game": 6704,
      "##famous ": 6705,
      "##hors": 6706,
      "##love \" ": 6707,
      "##virt": 6708,
      "##instead of ": 6709,
      "##literat": 6710,
      "##soundtrack ": 6711,
      "##yellow ": 6712,
      "##mccall ": 6713,
      "##energy ": 6714,
      "##deploy": 6715,
      "##noth": 6716,
      "## and ": 6717,
      "##fear": 6718,
      "##gor": 6719,
      "##l. ": 6720,
      "##enz": 6721,
      "##oft": 6722,
      "##ings of ": 6723,
      "##and its ": 6724,
      "##ing him ": 6725,
      "##at , ": 6726,
      "##ots ": 6727,
      "##he is ": 6728,
      "##resist": 6729,
      "##parall": 6730,
      "##were also ": 6731,
      "##uct ": 6732,
      "##struck ": 6733,
      "##which is ": 6734,
      "##years . ": 6735,
      "##mond ": 6736,
      "##inner ": 6737,
      "##innis ": 6738,
      "##higher ": 6739,
      "##sky": 6740,
      "##received a ": 6741,
      "##becomes ": 6742,
      "##% of the ": 6743,
      "##increasingly ": 6744,
      "## transport ": 6745,
      "##empire ": 6746,
      "##synth": 6747,
      "##@-@ year @-@ ": 6748,
      "##iguan": 6749,
      "##despite the ": 6750,
      "##96 ": 6751,
      "##gab": 6752,
      "##sand": 6753,
      "##ograp": 6754,
      "##lane ": 6755,
      "##vul": 6756,
      "##ara ": 6757,
      "##ed over ": 6758,
      "##remain ": 6759,
      "##republic": 6760,
      "##ing two ": 6761,
      "##on june ": 6762,
      "##elimin": 6763,
      "##as to ": 6764,
      "##igg": 6765,
      "##eter": 6766,
      "##resem": 6767,
      "##lies ": 6768,
      "##ute ": 6769,
      "##box": 6770,
      "##dismiss": 6771,
      "##has also ": 6772,
      "##9 – ": 6773,
      "##meant": 6774,
      "##games , ": 6775,
      "##eful ": 6776,
      "##demand": 6777,
      "##michig": 6778,
      "##install": 6779,
      "##swed": 6780,
      "## traditional ": 6781,
      "##philadelph": 6782,
      "##marriage ": 6783,
      "##hours ": 6784,
      "##ranked ": 6785,
      "##headquarters ": 6786,
      "##pennsylvania ": 6787,
      "##hersel": 6788,
      "##64 ": 6789,
      "##een ": 6790,
      "##rare ": 6791,
      "##oil ": 6792,
      "##bank ": 6793,
      "##wice ": 6794,
      "##would": 6795,
      "##ka": 6796,
      "##25": 6797,
      "##25 , ": 6798,
      "##al to ": 6799,
      "##reform": 6800,
      "##its": 6801,
      "##outer ": 6802,
      "##ley , ": 6803,
      "##ent of ": 6804,
      "##exhib": 6805,
      "##) =  ": 6806,
      "##scal": 6807,
      "##contract": 6808,
      "##flow ": 6809,
      "##outside the ": 6810,
      "##years of ": 6811,
      "##minim": 6812,
      "##mush": 6813,
      "##grew ": 6814,
      "##visual ": 6815,
      "##wild": 6816,
      "##collap": 6817,
      "##way to ": 6818,
      "##studio": 6819,
      "##young": 6820,
      "##prime ": 6821,
      "##personnel ": 6822,
      "##weekly ": 6823,
      "##canada ": 6824,
      "##except ": 6825,
      "##societ": 6826,
      "##chapel ": 6827,
      "##later that ": 6828,
      "##conflict ": 6829,
      "##amount of ": 6830,
      "##mogadishu ": 6831,
      "##ia t": 6832,
      "##now": 6833,
      "## @-@ ": 6834,
      "##ffl": 6835,
      "##hms ": 6836,
      "##inal ": 6837,
      "##, who ": 6838,
      "##itable ": 6839,
      "##on may ": 6840,
      "##or \" ": 6841,
      "##one @-@ ": 6842,
      "##commonly ": 6843,
      "##8 @.@ ": 6844,
      " the first ": 6845,
      "##decor": 6846,
      "##partn": 6847,
      "##regular": 6848,
      "##drive ": 6849,
      "##province ": 6850,
      "##link": 6851,
      "##mike ": 6852,
      "##sult": 6853,
      "##micro": 6854,
      "##reached the ": 6855,
      "##palest": 6856,
      "##examin": 6857,
      "##featured ": 6858,
      "##africa ": 6859,
      "##peninsul": 6860,
      "##suffered ": 6861,
      "##hospital ": 6862,
      "##rainfall ": 6863,
      "##prompt": 6864,
      "##swit": 6865,
      "##pair ": 6866,
      "##'re ": 6867,
      "##jec": 6868,
      "##kur": 6869,
      "##z , ": 6870,
      "##enough": 6871,
      "##item": 6872,
      "##isc": 6873,
      "##urg": 6874,
      "##ides ": 6875,
      "##for her ": 6876,
      "##spar": 6877,
      "##raid": 6878,
      "##e , and the ": 6879,
      "##libr": 6880,
      "##1 @,@ 000 ": 6881,
      "##commod": 6882,
      "##ished ": 6883,
      "##trad": 6884,
      "##build ": 6885,
      "##called \" ": 6886,
      "##mediev": 6887,
      "##burg": 6888,
      "##living ": 6889,
      "##becoming ": 6890,
      "##r & ": 6891,
      "##. there are ": 6892,
      "##nominated ": 6893,
      "##secondary ": 6894,
      "##premier ": 6895,
      "##sexual ": 6896,
      "##computer ": 6897,
      "##residents ": 6898,
      "##dissip": 6899,
      "##ax ": 6900,
      "##fal": 6901,
      "##ring ": 6902,
      "##pick": 6903,
      "##ha ": 6904,
      "##led the ": 6905,
      "##mand": 6906,
      "##kon": 6907,
      "##30 , ": 6908,
      "##zer": 6909,
      "##, it ": 6910,
      "##y was ": 6911,
      "##react": 6912,
      "##. on the ": 6913,
      "##. while ": 6914,
      "##ston": 6915,
      "##isol": 6916,
      "##who": 6917,
      "##adult ": 6918,
      "##k and ": 6919,
      "##in the first ": 6920,
      "##in the united stat": 6921,
      "##s , a ": 6922,
      "##s , who ": 6923,
      "##lieut": 6924,
      "##aven": 6925,
      "##attach": 6926,
      "##coach": 6927,
      "##surrend": 6928,
      "##simply ": 6929,
      "##hamels ": 6930,
      "##whether ": 6931,
      "##reason": 6932,
      "##organization ": 6933,
      "##protein": 6934,
      "##praised the ": 6935,
      "##doll": 6936,
      "##gulf ": 6937,
      "##left the ": 6938,
      "##nesbitt ": 6939,
      "##for example , ": 6940,
      "##consecutive ": 6941,
      "##15 , ": 6942,
      "##a that ": 6943,
      "##eur ": 6944,
      "##sia ": 6945,
      "##oon ": 6946,
      "##pra": 6947,
      "##y to the ": 6948,
      "##lb ": 6949,
      "##bell ": 6950,
      "##0 to ": 6951,
      "##ine": 6952,
      "##arch ": 6953,
      "##of three ": 6954,
      "##stal": 6955,
      "##er \" ": 6956,
      "##eless ": 6957,
      "##them": 6958,
      "##ent to ": 6959,
      "##used the ": 6960,
      "##perhap": 6961,
      "##attor": 6962,
      "##all of the ": 6963,
      "##presence ": 6964,
      "## they are ": 6965,
      "##height ": 6966,
      "##after his ": 6967,
      "##dr. ": 6968,
      "##begin": 6969,
      "##american": 6970,
      "##below ": 6971,
      "##lands ": 6972,
      "##shipp": 6973,
      "##model ": 6974,
      "##shows ": 6975,
      "##light horse ": 6976,
      "##company , ": 6977,
      "##labor": 6978,
      "##symbol": 6979,
      " there ": 6980,
      "##channel ": 6981,
      "##miami ": 6982,
      "##nu": 6983,
      "##nation ": 6984,
      "##sant": 6985,
      "##cy ": 6986,
      "##cot": 6987,
      "##ings and ": 6988,
      "##for this ": 6989,
      "##ion in ": 6990,
      "##of the year ": 6991,
      "##eman ": 6992,
      "##exclus": 6993,
      "##inth ": 6994,
      "##clou": 6995,
      "##ity , ": 6996,
      "##with two ": 6997,
      "##ends ": 6998,
      "##centre ": 6999,
      "##glob": 7000,
      "##depth ": 7001,
      "##one of the most ": 7002,
      "## term": 7003,
      "##successfully ": 7004,
      "##birth": 7005,
      "##voy": 7006,
      "##provided ": 7007,
      "##animal ": 7008,
      "##ridg": 7009,
      "##johnson ": 7010,
      "##growing ": 7011,
      "##applewhite ": 7012,
      "##alexand": 7013,
      "##iation ": 7014,
      "##non": 7015,
      "##naz": 7016,
      "##eam ": 7017,
      "##gang": 7018,
      "##gord": 7019,
      "##crown ": 7020,
      "##bility ": 7021,
      "##y \" ": 7022,
      "##of that ": 7023,
      "##isab": 7024,
      "##ask ": 7025,
      "##eva ": 7026,
      "##) of ": 7027,
      "##parents ": 7028,
      "##scale ": 7029,
      "##out of the ": 7030,
      "##outside ": 7031,
      "## , and was ": 7032,
      "##she is ": 7033,
      "##specul": 7034,
      "##supply ": 7035,
      "##added ": 7036,
      "##made a ": 7037,
      "##changes ": 7038,
      "##reviv": 7039,
      "##high school ": 7040,
      "##delay": 7041,
      "##cambodi": 7042,
      "##burns ": 7043,
      "##emperor ": 7044,
      "##grand sl": 7045,
      "##post @-@ ": 7046,
      "##soldiers ": 7047,
      "##frequently ": 7048,
      "##property ": 7049,
      "##i 'm ": 7050,
      "##94 ": 7051,
      "##a.": 7052,
      "##rag": 7053,
      "##gw": 7054,
      "##sund": 7055,
      "##sman ": 7056,
      "##wrest": 7057,
      "##was built ": 7058,
      "##concret": 7059,
      "##shak": 7060,
      "##compris": 7061,
      "##s , with ": 7062,
      "##ity and ": 7063,
      " = = reception = =  ": 7064,
      "##retir": 7065,
      "##steph": 7066,
      "##lost": 7067,
      "##albums ": 7068,
      "##officials ": 7069,
      "##bury ": 7070,
      "##like a ": 7071,
      "##giving ": 7072,
      "##starting ": 7073,
      "##sister ": 7074,
      "##reason ": 7075,
      "##script ": 7076,
      "##risk ": 7077,
      "##fortun": 7078,
      "##award for ": 7079,
      "##difficult ": 7080,
      "##fighting ": 7081,
      "##fiction ": 7082,
      "##ouchdown ": 7083,
      "##mortal ": 7084,
      "##israel ": 7085,
      "##fowler ": 7086,
      "##facilities ": 7087,
      "##hawai": 7088,
      "##illinois ": 7089,
      "##multiple ": 7090,
      "##da ": 7091,
      "##sen ": 7092,
      "##selling ": 7093,
      "##past": 7094,
      "##atom": 7095,
      "##reach ": 7096,
      "##stew": 7097,
      "##on november ": 7098,
      "##icient ": 7099,
      "## , with ": 7100,
      "##esh ": 7101,
      "##ado ": 7102,
      "##com ": 7103,
      "##beat ": 7104,
      "##rio ": 7105,
      "##oti": 7106,
      "##dial": 7107,
      "##ation for ": 7108,
      "##bring": 7109,
      "##2 . ": 7110,
      "##ackn": 7111,
      "##crew": 7112,
      "##during a ": 7113,
      "##in 193": 7114,
      "##guard ": 7115,
      "##national": 7116,
      "## takes ": 7117,
      "##@-@ to ": 7118,
      "##house of ": 7119,
      "##southeast ": 7120,
      "##idential ": 7121,
      "##listed ": 7122,
      "##entered the ": 7123,
      "##introduct": 7124,
      "##dream": 7125,
      "##macle": 7126,
      "##less than ": 7127,
      "##khan": 7128,
      "##website ": 7129,
      "##reinforc": 7130,
      "##baseball ": 7131,
      "##han": 7132,
      "##vision ": 7133,
      "##mr": 7134,
      "##bak": 7135,
      "##jaz": 7136,
      "##85 ": 7137,
      "##ich ": 7138,
      "##rox": 7139,
      "##ism": 7140,
      "##ism , ": 7141,
      "##acu": 7142,
      "## , \" ": 7143,
      "##is un": 7144,
      "##ion was ": 7145,
      "##chair": 7146,
      "##entire": 7147,
      "##emat": 7148,
      "##plant ": 7149,
      "##conce": 7150,
      "##in the early ": 7151,
      "##in the united states ": 7152,
      "##deal": 7153,
      "##resc": 7154,
      "##resign": 7155,
      "##recall": 7156,
      "##recently ": 7157,
      " = = background ": 7158,
      "##boat": 7159,
      "##some of ": 7160,
      "##greek ": 7161,
      "##helms ": 7162,
      "##u k": 7163,
      "##landfall ": 7164,
      "##extrem": 7165,
      "##conditions ": 7166,
      "##news ": 7167,
      "##hydro": 7168,
      "##make the ": 7169,
      "##subsequent ": 7170,
      "##screen ": 7171,
      "##world war ii ": 7172,
      "##intelligence ": 7173,
      "##succeed": 7174,
      "##next": 7175,
      "##rating ": 7176,
      "##yst": 7177,
      "##hit": 7178,
      "##vat": 7179,
      "##vice ": 7180,
      "##mm ( ": 7181,
      "##bay": 7182,
      "##wav": 7183,
      "##kept ": 7184,
      "##46 ": 7185,
      "## the t": 7186,
      "##enth": 7187,
      "##ed , the ": 7188,
      "##. an ": 7189,
      "##is to ": 7190,
      "##ed through ": 7191,
      "##) is ": 7192,
      "##spon": 7193,
      "##i – ": 7194,
      "##bron": 7195,
      "##contr": 7196,
      "##ogue ": 7197,
      "##predat": 7198,
      "##a sign": 7199,
      "##capable ": 7200,
      "##herit": 7201,
      "## there were ": 7202,
      "##ed on a ": 7203,
      "##etts ": 7204,
      "##north @-@ ": 7205,
      "##episode was ": 7206,
      "##extensive ": 7207,
      "##cub": 7208,
      "##made the ": 7209,
      "##laid ": 7210,
      "##effective ": 7211,
      "##damaged ": 7212,
      "##circul": 7213,
      "##oxford ": 7214,
      "##civil war ": 7215,
      "##earthqu": 7216,
      "##alongside ": 7217,
      "##echniqu": 7218,
      "##nas": 7219,
      "##nob": 7220,
      "##fame ": 7221,
      "##hil": 7222,
      "##lord": 7223,
      "##bound ": 7224,
      "##bann": 7225,
      "##kans": 7226,
      "##0s and ": 7227,
      "##repl": 7228,
      "##. i ": 7229,
      "##his own ": 7230,
      "##raid ": 7231,
      "##are not ": 7232,
      "##content ": 7233,
      "##ard the ": 7234,
      "##sipp": 7235,
      "##ure and ": 7236,
      "##suppos": 7237,
      "##1995 ": 7238,
      "##opera ": 7239,
      "##governor ": 7240,
      "##breeding ": 7241,
      "##score ": 7242,
      "##films ": 7243,
      "##requir": 7244,
      "##request": 7245,
      "##featuring ": 7246,
      "##europe ": 7247,
      "##common star": 7248,
      "##process": 7249,
      "##leaving ": 7250,
      "##above the ": 7251,
      "##dollar": 7252,
      "##hotel ": 7253,
      "## themselves ": 7254,
      "##rapidly ": 7255,
      "##cardiff ": 7256,
      "##lieutenant ": 7257,
      "##entirely ": 7258,
      " after the ": 7259,
      "##nel": 7260,
      "##sell": 7261,
      "##you": 7262,
      "##ycl": 7263,
      "##kam": 7264,
      "##ate , ": 7265,
      "##stret": 7266,
      "##er is ": 7267,
      "##account": 7268,
      "##ess . ": 7269,
      "##an \" ": 7270,
      "##\" . he ": 7271,
      "##imper": 7272,
      "##) and the ": 7273,
      "##pressur": 7274,
      "##es , which ": 7275,
      "##18 , ": 7276,
      "##new york": 7277,
      "##surface ": 7278,
      "##not to ": 7279,
      "##film 's ": 7280,
      "##buri": 7281,
      "##half": 7282,
      "##warn": 7283,
      "##campus ": 7284,
      "##low @-@ ": 7285,
      "##allowing ": 7286,
      "##video game ": 7287,
      "##battalion , ": 7288,
      "##figures ": 7289,
      "##realiz": 7290,
      "##settlement ": 7291,
      "##chapter ": 7292,
      "##ability to ": 7293,
      "##committee ": 7294,
      "##negoti": 7295,
      "##member of the ": 7296,
      "##carolina ": 7297,
      "##analysis ": 7298,
      "##neutr": 7299,
      "##dvd ": 7300,
      "##gameplay ": 7301,
      "##medieval ": 7302,
      "##nc ": 7303,
      "##eir": 7304,
      "##ror": 7305,
      "##psy": 7306,
      "##yr": 7307,
      "##cos": 7308,
      "##hat": 7309,
      "##ugg": 7310,
      "##56 ": 7311,
      "##s for the ": 7312,
      "##arsen": 7313,
      "##stan": 7314,
      "##ing was ": 7315,
      "##amat": 7316,
      "##for two ": 7317,
      "##consol": 7318,
      "##comic ": 7319,
      "##died in ": 7320,
      "##recre": 7321,
      "##2 and ": 7322,
      "##with t": 7323,
      "## true ": 7324,
      "##predict": 7325,
      "##; it ": 7326,
      "##colour": 7327,
      "##ells ": 7328,
      "##ancy ": 7329,
      "##track": 7330,
      "##between": 7331,
      "##ed that he ": 7332,
      "##miles ": 7333,
      "##barrow ": 7334,
      "##broke ": 7335,
      "##older ": 7336,
      "##description ": 7337,
      "##version of ": 7338,
      "##solo ": 7339,
      "##groups ": 7340,
      "##passeng": 7341,
      "##market": 7342,
      "##return to ": 7343,
      "##criticism ": 7344,
      "##increasing ": 7345,
      "##studies ": 7346,
      "##europium ": 7347,
      "##significantly ": 7348,
      "##vocals ": 7349,
      "##characterist": 7350,
      "##potential ": 7351,
      "##committe": 7352,
      "##when they ": 7353,
      "##felt that ": 7354,
      "##dani": 7355,
      "##budget ": 7356,
      "##seventh ": 7357,
      "##egyptian ": 7358,
      "##inches ( ": 7359,
      "##varanasi ": 7360,
      "##vietnamese ": 7361,
      "##prime minist": 7362,
      "##eur": 7363,
      "##des ": 7364,
      "##gros": 7365,
      "##pav": 7366,
      "##pay ": 7367,
      "##han ": 7368,
      "##mist": 7369,
      "##bit ": 7370,
      "##21 , ": 7371,
      "##23 , ": 7372,
      "##s ; ": 7373,
      "##instruct": 7374,
      "##erly ": 7375,
      "##ers , and ": 7376,
      "##orres ": 7377,
      "##reput": 7378,
      "##and other ": 7379,
      "##ican ": 7380,
      "##ics and ": 7381,
      "##as t": 7382,
      "##china ": 7383,
      "##usual ": 7384,
      "##hair ": 7385,
      "##( \" ": 7386,
      "##intent": 7387,
      "##were not ": 7388,
      "##quot": 7389,
      "##quite ": 7390,
      "##wealth ": 7391,
      "##3 @,@ ": 7392,
      "##2006 , ": 7393,
      "##fram": 7394,
      "##charge ": 7395,
      "##ousand": 7396,
      "##king of ": 7397,
      "##begins ": 7398,
      "##area , ": 7399,
      "##battery ": 7400,
      "##no longer ": 7401,
      "##episode , ": 7402,
      "##population of ": 7403,
      "##modi": 7404,
      "##junct": 7405,
      "##natur": 7406,
      "##opened ": 7407,
      "##1970 ": 7408,
      "##buildings ": 7409,
      "##attempts to ": 7410,
      "##asked ": 7411,
      "##wides": 7412,
      "##his t": 7413,
      "##senior ": 7414,
      "##master ": 7415,
      "##olivi": 7416,
      "##chemical ": 7417,
      "##steve ": 7418,
      "##search ": 7419,
      "##manchester ": 7420,
      "##dumont ": 7421,
      "##arthur ": 7422,
      "##nest": 7423,
      "##fast ": 7424,
      "##fans ": 7425,
      "##e. ": 7426,
      "##rough ": 7427,
      "##gett": 7428,
      "##ures": 7429,
      "##jes": 7430,
      "##78 ": 7431,
      "##26 , ": 7432,
      "##; this ": 7433,
      "##ink": 7434,
      "##d '": 7435,
      "##ort": 7436,
      "##of an ": 7437,
      "##accompl": 7438,
      "##\" is ": 7439,
      "##oc ": 7440,
      "##deep": 7441,
      "##1 and ": 7442,
      "##ated with ": 7443,
      "##assass": 7444,
      "##ary , ": 7445,
      "##boise ": 7446,
      "##secret ": 7447,
      "##statist": 7448,
      "##names ": 7449,
      "##dubl": 7450,
      "##protagon": 7451,
      "##album 's ": 7452,
      "##enny": 7453,
      "##17 , ": 7454,
      "##scoring ": 7455,
      "##india ": 7456,
      "##additionally ": 7457,
      "##half @-@ ": 7458,
      "##sent to ": 7459,
      "##gradually ": 7460,
      "##friends ": 7461,
      "##vocal ": 7462,
      "##doub": 7463,
      "## track and ": 7464,
      "##occur ": 7465,
      "##columb": 7466,
      "##remn": 7467,
      "##blem ": 7468,
      "##cougar ": 7469,
      "##crazy in ": 7470,
      "##philosoph": 7471,
      "##lum": 7472,
      "## tur": 7473,
      "##ativ": 7474,
      "##and @-@ ": 7475,
      "##in 17": 7476,
      "##ab ": 7477,
      "## that was ": 7478,
      "##seg": 7479,
      "##ot of ": 7480,
      "##1 . ": 7481,
      "##port , ": 7482,
      "##marg": 7483,
      "##seri": 7484,
      "##desc": 7485,
      "##she had ": 7486,
      "##included the ": 7487,
      "##artist": 7488,
      "##while , ": 7489,
      "##drum ": 7490,
      "##a tri": 7491,
      "##green": 7492,
      "##lywood ": 7493,
      "##named the ": 7494,
      "##bark": 7495,
      "##north of ": 7496,
      "##wild ": 7497,
      "## that this ": 7498,
      "##doing ": 7499,
      "##returned to the ": 7500,
      "##different": 7501,
      "##performed ": 7502,
      "##winds of ": 7503,
      "##renam": 7504,
      "##dream ": 7505,
      "##prevent ": 7506,
      "##negative ": 7507,
      "##roll ": 7508,
      "##confess": 7509,
      "##allied ": 7510,
      "##normal ": 7511,
      "##lock hav": 7512,
      "##assault ": 7513,
      "##instrument": 7514,
      "##@-@ year @-@ old ": 7515,
      "##dri": 7516,
      "##va": 7517,
      "### ": 7518,
      "##inhabit": 7519,
      "## thought ": 7520,
      "##oft ": 7521,
      "##itz ": 7522,
      "##o was ": 7523,
      "##stock": 7524,
      "##in her ": 7525,
      "##and that the ": 7526,
      "##share ": 7527,
      "##cloth": 7528,
      "##seas ": 7529,
      "##ate and ": 7530,
      "##disput": 7531,
      "##forms ": 7532,
      "##would not ": 7533,
      "##ed that \" ": 7534,
      "##subt": 7535,
      "## there are ": 7536,
      "##singer ": 7537,
      "##ed as an ": 7538,
      "##draft ": 7539,
      "##calcul": 7540,
      "##commander ": 7541,
      "##identifi": 7542,
      "##braz": 7543,
      "##winds ": 7544,
      "##nicole ": 7545,
      "##intended to ": 7546,
      "##habitat ": 7547,
      "##rolling ": 7548,
      "##question": 7549,
      "## territory ": 7550,
      "##dress": 7551,
      "##hid": 7552,
      "##ule ": 7553,
      "##jim ": 7554,
      "##800 ": 7555,
      "##00 , ": 7556,
      "##stood ": 7557,
      "##roph": 7558,
      "##roles ": 7559,
      "##as part of ": 7560,
      "##ion .  ": 7561,
      "##shell ": 7562,
      "##19 , ": 7563,
      "##ulys": 7564,
      "##his father ": 7565,
      "##allah ": 7566,
      "##mario ": 7567,
      "##prise ": 7568,
      "##carv": 7569,
      "##display ": 7570,
      "##poet ": 7571,
      "##jok": 7572,
      "##cook": 7573,
      "##) , which ": 7574,
      "##storm": 7575,
      "##held": 7576,
      "##duce ": 7577,
      "##descript": 7578,
      "##west of ": 7579,
      "##defense ": 7580,
      "##expans": 7581,
      "##during his ": 7582,
      "##runs ": 7583,
      "##approach ": 7584,
      "##possibil": 7585,
      "##referenc": 7586,
      "##doct": 7587,
      "##proposed ": 7588,
      "##focus ": 7589,
      "##dutch ": 7590,
      "##haifa ": 7591,
      "##hundred ": 7592,
      "##sustained ": 7593,
      "##r & b ": 7594,
      " although ": 7595,
      "##nest ": 7596,
      "##11 , ": 7597,
      "##fitt": 7598,
      "##fought ": 7599,
      "##dota ": 7600,
      "##hell": 7601,
      "##mer ": 7602,
      "##je": 7603,
      "##76": 7604,
      "##ery , ": 7605,
      "##aren": 7606,
      "##rema": 7607,
      "##remix ": 7608,
      "##. after the ": 7609,
      "##itled ": 7610,
      "##a number of ": 7611,
      "##in 16": 7612,
      "##owards the ": 7613,
      "##ival": 7614,
      "##evil ": 7615,
      "##haw": 7616,
      "##prog": 7617,
      "##) = = =  ": 7618,
      "##) is a ": 7619,
      "##carib": 7620,
      "##poor": 7621,
      "##us $ ": 7622,
      "##prefer": 7623,
      "##2015 , ": 7624,
      "##ance , ": 7625,
      "##counter ": 7626,
      "##folk ": 7627,
      "##correspond": 7628,
      "##north americ": 7629,
      "##directed ": 7630,
      "##solv": 7631,
      "##result ": 7632,
      "##detect": 7633,
      "##heart": 7634,
      "##half of the ": 7635,
      "## trib": 7636,
      "##uggl": 7637,
      "##silver ": 7638,
      "##practice ": 7639,
      "##helped ": 7640,
      "##prior to the ": 7641,
      "##occasionally ": 7642,
      "##bishop of ": 7643,
      "##virginia t": 7644,
      "##distinct": 7645,
      "##bottom ": 7646,
      "##briefly ": 7647,
      "##michigan ": 7648,
      "##widespre": 7649,
      "##ji": 7650,
      "##y . the ": 7651,
      "##ary": 7652,
      "##stable ": 7653,
      "##is t": 7654,
      "##was first ": 7655,
      "##emer": 7656,
      "##should": 7657,
      "##supre": 7658,
      "##it had ": 7659,
      "##abu @-@ ": 7660,
      "##proceed": 7661,
      "##clas": 7662,
      "##max ": 7663,
      "##its first ": 7664,
      "##from their ": 7665,
      "##pregn": 7666,
      "##term ": 7667,
      "##arts ": 7668,
      "##over a ": 7669,
      "##battles": 7670,
      "##appeared in ": 7671,
      "##appearanc": 7672,
      "##egyp": 7673,
      "##oldest ": 7674,
      "##episode of the ": 7675,
      "##was t": 7676,
      "##keats ": 7677,
      "##species of ": 7678,
      "##priest ": 7679,
      "##data ": 7680,
      "##municip": 7681,
      "##girl": 7682,
      "##intensity ": 7683,
      "##concept ": 7684,
      "##semi @-@ ": 7685,
      "##chestr": 7686,
      "##martin ": 7687,
      "##condoms ": 7688,
      "##memorial ": 7689,
      "##poetry ": 7690,
      "##rhyth": 7691,
      "##a simil": 7692,
      "##sarnia ": 7693,
      "##abu @-@ jam": 7694,
      "##66 ": 7695,
      "##rum": 7696,
      "##pas": 7697,
      "##youth ": 7698,
      "##ling": 7699,
      "##kra": 7700,
      "##81 ": 7701,
      "##0s . ": 7702,
      "##d of ": 7703,
      "##orial ": 7704,
      "##on december ": 7705,
      "##ical": 7706,
      "##as and ": 7707,
      "##ing . the ": 7708,
      "##omb ": 7709,
      "##at number ": 7710,
      "##was born ": 7711,
      "##unlike ": 7712,
      "##ents , ": 7713,
      "##plain ": 7714,
      "##consequ": 7715,
      "##evacu": 7716,
      "##in the t": 7717,
      "##in the world ": 7718,
      "##spok": 7719,
      "##avoid ": 7720,
      "##mann ": 7721,
      "##boston ": 7722,
      "##astic ": 7723,
      "##franch": 7724,
      "##decad": 7725,
      "##interior ": 7726,
      "##meet ": 7727,
      "##followed by ": 7728,
      "##released in ": 7729,
      "##egg": 7730,
      "##1998 ": 7731,
      "##cause ": 7732,
      "##christian": 7733,
      "##longest ": 7734,
      "##which they ": 7735,
      "##archaeolog": 7736,
      "##e . \"  ": 7737,
      "##advantage ": 7738,
      "##astronom": 7739,
      "##behavi": 7740,
      "##permanent ": 7741,
      "##anonymous ": 7742,
      "##caribbe": 7743,
      "##13 , ": 7744,
      "##fount": 7745,
      "##lud": 7746,
      "##vent": 7747,
      "##md ": 7748,
      "##kid": 7749,
      "##28 , ": 7750,
      "## twent": 7751,
      "##ination ": 7752,
      "##ert ": 7753,
      "##station": 7754,
      "##roy ": 7755,
      "##es from the ": 7756,
      "##their ": 7757,
      "##acher ": 7758,
      "##an in": 7759,
      "##conclus": 7760,
      "##sha": 7761,
      "##shad": 7762,
      "##leave ": 7763,
      "##being the ": 7764,
      "##rifl": 7765,
      "##le , ": 7766,
      "##exist ": 7767,
      "##with its ": 7768,
      "##claim ": 7769,
      "##ers are ": 7770,
      "##destruct": 7771,
      "##resour": 7772,
      "##ify ": 7773,
      "##mann": 7774,
      "##illa ": 7775,
      "##contain ": 7776,
      "##contact ": 7777,
      "##finals ": 7778,
      "##ment , ": 7779,
      "##basket": 7780,
      "##cap ": 7781,
      "##may have been ": 7782,
      "## there was ": 7783,
      "##extended ": 7784,
      "##him , ": 7785,
      "##graph ": 7786,
      "##walk": 7787,
      "##mountain": 7788,
      "##ratic ": 7789,
      "##russian ": 7790,
      "##eleph": 7791,
      "##joined the ": 7792,
      "##commission ": 7793,
      "##only the ": 7794,
      "##coast of ": 7795,
      "##pilot ": 7796,
      "##occupi": 7797,
      "##substant": 7798,
      "##chosen ": 7799,
      "##restaurant ": 7800,
      "##noisy ": 7801,
      "##14 , ": 7802,
      "##snow ": 7803,
      "##yth": 7804,
      "##has the ": 7805,
      "##bad ": 7806,
      "##( t": 7807,
      "##ko": 7808,
      "##27 , ": 7809,
      "##erog": 7810,
      "##orchestr": 7811,
      "##iting ": 7812,
      "##eland ": 7813,
      "##ams ": 7814,
      "##ed three ": 7815,
      "##@-@ class ": 7816,
      "##apol": 7817,
      "##abol": 7818,
      "##problem ": 7819,
      "##die ": 7820,
      "##maed": 7821,
      "##degre": 7822,
      "##grade ": 7823,
      "##marl": 7824,
      "##scap": 7825,
      "##3 . ": 7826,
      "##: a ": 7827,
      "##pref": 7828,
      "##color ": 7829,
      "##2014 , ": 7830,
      "##elled ": 7831,
      "##puzz": 7832,
      "##compon": 7833,
      "##hibar": 7834,
      "##accur": 7835,
      "##capac": 7836,
      "##release of ": 7837,
      "##protection ": 7838,
      "##ing , \" ": 7839,
      "##ship , ": 7840,
      "##produced by ": 7841,
      "##keep ": 7842,
      "##disturb": 7843,
      "##construction of ": 7844,
      "##managed to ": 7845,
      "##request ": 7846,
      "##heart ": 7847,
      "##honor": 7848,
      "##suffer": 7849,
      "##empt ": 7850,
      "##straight ": 7851,
      "##literary ": 7852,
      "##severe ": 7853,
      "##fantasy ": 7854,
      "##atmosphere ": 7855,
      "##ographer ": 7856,
      "##@-@ to @-@ ": 7857,
      "##macleod ": 7858,
      "##virginia tech ": 7859,
      "##iber": 7860,
      "##eigh": 7861,
      "##gian ": 7862,
      "##sex ": 7863,
      "##ye": 7864,
      "##ying to ": 7865,
      "##lin ": 7866,
      "##warr": 7867,
      "##29 , ": 7868,
      "##54 ": 7869,
      "##05 ": 7870,
      "##qed": 7871,
      "##s or ": 7872,
      "## things ": 7873,
      "##ched ": 7874,
      "##ented ": 7875,
      "##ett ": 7876,
      "##apart ": 7877,
      "##exerc": 7878,
      "##rail ": 7879,
      "## to that ": 7880,
      "##ies and ": 7881,
      "##avoid": 7882,
      "##strang": 7883,
      "##mant": 7884,
      "##have the ": 7885,
      "##flag": 7886,
      "##6 . ": 7887,
      "##morn": 7888,
      "##frank": 7889,
      "##e them ": 7890,
      "##compound": 7891,
      "##evergl": 7892,
      "##neither ": 7893,
      "##king 's ": 7894,
      "##basis ": 7895,
      "##son of ": 7896,
      "##where it ": 7897,
      "##mile ( ": 7898,
      "##red to the ": 7899,
      "##receive ": 7900,
      "##river , ": 7901,
      "##child": 7902,
      "##villag": 7903,
      "##period of ": 7904,
      "##meanwhile , ": 7905,
      "##minutes ": 7906,
      "##satis": 7907,
      "##went on to ": 7908,
      "##judg": 7909,
      "##positive review": 7910,
      "##didn 't ": 7911,
      "##phoen": 7912,
      "##hornung ": 7913,
      "##collaps": 7914,
      "##imperial ": 7915,
      "##widespread ": 7916,
      "##aiss": 7917,
      "##eu ": 7918,
      "##dod": 7919,
      "##gain ": 7920,
      "##oy ": 7921,
      "##ca ": 7922,
      "##von ": 7923,
      "##mam": 7924,
      "##men , ": 7925,
      "##bid ": 7926,
      "##boliv": 7927,
      "##wins ": 7928,
      "##ual": 7929,
      "##72 ": 7930,
      "##79 ": 7931,
      "##reat ": 7932,
      "##revis": 7933,
      "##o . ": 7934,
      "##admitt": 7935,
      "##ers in the ": 7936,
      "##oct": 7937,
      "##, the song ": 7938,
      "##20th century ": 7939,
      "##recru": 7940,
      "##attent": 7941,
      "##morris": 7942,
      "##creator ": 7943,
      "##who is ": 7944,
      "##decreas": 7945,
      "##peac": 7946,
      "##ions were ": 7947,
      "##it was not ": 7948,
      "##ceratop": 7949,
      "##ette ": 7950,
      "##world cup ": 7951,
      "##moz": 7952,
      "##described by ": 7953,
      "##condition": 7954,
      "##biograph": 7955,
      "##passed ": 7956,
      "##successful": 7957,
      "##explos": 7958,
      "##convinc": 7959,
      "##bond ": 7960,
      "##ridge ": 7961,
      "##women 's ": 7962,
      "##was released on ": 7963,
      "##justice ": 7964,
      "##combined ": 7965,
      "##arab ": 7966,
      "##deliver": 7967,
      "##refused to ": 7968,
      "##kitsun": 7969,
      "##minnesot": 7970,
      "##individuals ": 7971,
      "##a similar ": 7972,
      "##aint": 7973,
      "##fing": 7974,
      "##eight": 7975,
      "##ry , ": 7976,
      "##rural ": 7977,
      "##dim": 7978,
      "##danc": 7979,
      "##dog ": 7980,
      "##s.": 7981,
      "##save ": 7982,
      "##pent": 7983,
      "##hir": 7984,
      "##lenn": 7985,
      "##v. ": 7986,
      "##bass": 7987,
      "##08 ": 7988,
      "##s by ": 7989,
      "##s had ": 7990,
      "##anist": 7991,
      "##ory , ": 7992,
      "##eliz": 7993,
      "##ison": 7994,
      "##is that ": 7995,
      "##@-@ inch ": 7996,
      "##agent ": 7997,
      "##leon": 7998,
      "##lear": 7999,
      "##. the following ": 8000,
      "##buc": 8001,
      "##for an ": 8002,
      "##20 , ": 8003,
      "##rescu": 8004,
      "##ed the t": 8005,
      "##ay , ": 8006,
      "##at the same tim": 8007,
      "##ordered ": 8008,
      "##et , ": 8009,
      "## trou": 8010,
      "##but was ": 8011,
      "##cold ": 8012,
      "##article ": 8013,
      "##regional ": 8014,
      "##serve ": 8015,
      "##. \" he ": 8016,
      "##not the ": 8017,
      "##corps ": 8018,
      "##work , ": 8019,
      "##skin ": 8020,
      "##describes ": 8021,
      "##slav": 8022,
      "##reported ": 8023,
      "##fellow ": 8024,
      "##window": 8025,
      "## towards ": 8026,
      "##coupl": 8027,
      "##machin": 8028,
      "##existing ": 8029,
      "##bbc ": 8030,
      "##earned ": 8031,
      "##gully ": 8032,
      "##roughly ": 8033,
      "##sweet ": 8034,
      "##kind of ": 8035,
      "##enough to ": 8036,
      "##fres": 8037,
      "##pic": 8038,
      "## ther": 8039,
      "## thick ": 8040,
      "##are t": 8041,
      "##rey ": 8042,
      "##reaction ": 8043,
      "##and is ": 8044,
      "##rog": 8045,
      "##ing its ": 8046,
      "##element ": 8047,
      "##ament ": 8048,
      "##al . ": 8049,
      "##plans ": 8050,
      "##shot": 8051,
      "##) ; ": 8052,
      "##perform ": 8053,
      "##are also ": 8054,
      "##feel ": 8055,
      "##awn ": 8056,
      "##charter ": 8057,
      "##who were ": 8058,
      "##man 's ": 8059,
      "##ed a new ": 8060,
      "##juan ": 8061,
      "##highlight": 8062,
      "##brook": 8063,
      "##discipl": 8064,
      "##harb": 8065,
      "##harmon": 8066,
      "##clean": 8067,
      "##myth": 8068,
      "##greatly ": 8069,
      "##nicol": 8070,
      "##mccar": 8071,
      "##proteins ": 8072,
      "##dinosaur": 8073,
      "##indicat": 8074,
      "##drop ": 8075,
      "##coastal ": 8076,
      "##hundred": 8077,
      "##alice in ch": 8078,
      "##circum": 8079,
      "##khanh ": 8080,
      "##capable of ": 8081,
      "## track and field ": 8082,
      "##noisy min": 8083,
      "##ie , ": 8084,
      "##gained ": 8085,
      "##mtv ": 8086,
      "##jill": 8087,
      "##jump ": 8088,
      "## thos": 8089,
      "##ann ": 8090,
      "##ania ": 8091,
      "##onic ": 8092,
      "##als and ": 8093,
      "##o ( ": 8094,
      "##on her ": 8095,
      "##ous , ": 8096,
      "##issipp": 8097,
      "##entially ": 8098,
      "##@-@ like ": 8099,
      "##conqu": 8100,
      "##shu": 8101,
      "##k '": 8102,
      "##superi": 8103,
      "##leuk": 8104,
      "##prop": 8105,
      "##ation . the ": 8106,
      "##or a ": 8107,
      "##seat ": 8108,
      "##peron ": 8109,
      "##within a ": 8110,
      "##knot": 8111,
      "##steam": 8112,
      "##) , a ": 8113,
      "##own , ": 8114,
      "##ailed ": 8115,
      "##1999 ": 8116,
      "##south @-@ ": 8117,
      "##ennis ": 8118,
      "##mississipp": 8119,
      "##came to ": 8120,
      "##holy ": 8121,
      "##listen": 8122,
      "##agreed to ": 8123,
      "##sentence ": 8124,
      "##similar to ": 8125,
      "##bodies ": 8126,
      "##violence ": 8127,
      "##citiz": 8128,
      "##rhym": 8129,
      "##scholar": 8130,
      "##enemy ": 8131,
      "##intersect": 8132,
      "##erefore ": 8133,
      "##neighbor": 8134,
      "##alabama ": 8135,
      "##braathens safe ": 8136,
      "##eagle ": 8137,
      "##herself ": 8138,
      "##remaind": 8139,
      "##rud": 8140,
      "##dann": 8141,
      "##j ": 8142,
      "##76 ": 8143,
      "##ina , ": 8144,
      "##, while ": 8145,
      "##ors": 8146,
      "##. some ": 8147,
      "##aml ": 8148,
      "##aggress": 8149,
      "##in the second ": 8150,
      "##liu k": 8151,
      "##carr": 8152,
      "##fey ": 8153,
      "##184": 8154,
      "##peace ": 8155,
      "##monit": 8156,
      "##only one ": 8157,
      "##son and ": 8158,
      "##ed , but ": 8159,
      "##such a ": 8160,
      "##pope ": 8161,
      "##simon ": 8162,
      "##film was ": 8163,
      "##cannot ": 8164,
      "##ty @-@ ": 8165,
      "## to be the ": 8166,
      "##modern": 8167,
      "##closely ": 8168,
      "##communist ": 8169,
      "##younger ": 8170,
      "##whether": 8171,
      "##addition to ": 8172,
      "##nichol": 8173,
      "##samu": 8174,
      "##convent": 8175,
      "##ought to ": 8176,
      "##resulted in ": 8177,
      "##favour": 8178,
      "##carey 's ": 8179,
      "##bradford ": 8180,
      "##industrial ": 8181,
      "##crusad": 8182,
      "##recommend": 8183,
      "##guardi": 8184,
      "##aissance ": 8185,
      "##nathan ": 8186,
      "##eor": 8187,
      "##d. ": 8188,
      "##o t": 8189,
      "##mate ": 8190,
      "##700 ": 8191,
      "## tax": 8192,
      "##arrest": 8193,
      "##of those ": 8194,
      "##its t": 8195,
      "##is no ": 8196,
      "##iv ": 8197,
      "##@-@ based ": 8198,
      "##using the ": 8199,
      "##lee ": 8200,
      "##earl ": 8201,
      "##i .  ": 8202,
      "##ies of ": 8203,
      "##p @-@ ": 8204,
      "##withdraw": 8205,
      "##7 and ": 8206,
      "##finds ": 8207,
      "##aster ": 8208,
      "##during": 8209,
      "##during this ": 8210,
      "##indig": 8211,
      "##side of ": 8212,
      "##man and ": 8213,
      "##follow ": 8214,
      "##miss ": 8215,
      "##year . ": 8216,
      "##bie ": 8217,
      "##song , ": 8218,
      "##exped": 8219,
      "##best @-@ ": 8220,
      "##australia , ": 8221,
      "##50 @,@ 000 ": 8222,
      "##given": 8223,
      "##street": 8224,
      "##closed ": 8225,
      "##appropri": 8226,
      "##believed that ": 8227,
      "##certain": 8228,
      "##eye ": 8229,
      "##london , ": 8230,
      "##appli": 8231,
      "##joined ": 8232,
      "##assistant ": 8233,
      "##croatia ": 8234,
      "##croatian ": 8235,
      "##immigr": 8236,
      "##category ": 8237,
      "##lewis ": 8238,
      "##urkish ": 8239,
      "##frederic": 8240,
      " = = background = =  ": 8241,
      "##liu kang ": 8242,
      "##ior": 8243,
      "##61 ": 8244,
      "##rabb": 8245,
      "##dens": 8246,
      "##pair": 8247,
      "##path ": 8248,
      "##yn ": 8249,
      "##bord": 8250,
      "##kill ": 8251,
      "##eric ": 8252,
      "##armor": 8253,
      "##ali ": 8254,
      "##at this ": 8255,
      "##es on the ": 8256,
      "##ili": 8257,
      "##acid ": 8258,
      "##is \" ": 8259,
      "##al of the ": 8260,
      "##why ": 8261,
      "##ignor": 8262,
      "##entered ": 8263,
      "##exter": 8264,
      "##e , with ": 8265,
      "##august": 8266,
      "##angl": 8267,
      "##predec": 8268,
      "##charm": 8269,
      "##mind ": 8270,
      "##compil": 8271,
      "##monument ": 8272,
      "##parts of ": 8273,
      "##parts of the ": 8274,
      "##a sur": 8275,
      "##a song ": 8276,
      "##basin ": 8277,
      "##core ": 8278,
      "##ly to ": 8279,
      "##divine ": 8280,
      "##divers": 8281,
      "##ideas ": 8282,
      "##cris": 8283,
      "##himself": 8284,
      "##breed": 8285,
      "##model": 8286,
      "##sons ": 8287,
      "##further": 8288,
      "##completed ": 8289,
      "##warri": 8290,
      "##gives ": 8291,
      "##camer": 8292,
      "##holid": 8293,
      "##hollywood ": 8294,
      "##film , ": 8295,
      "##communities ": 8296,
      "##village of ": 8297,
      "##electric ": 8298,
      "##merg": 8299,
      "##claimed ": 8300,
      "##response ": 8301,
      "##said , \" ": 8302,
      "##colonel ": 8303,
      "##colonial ": 8304,
      "##- ( ": 8305,
      "##e trans": 8306,
      "##difficult to ": 8307,
      "##clark": 8308,
      "##method ": 8309,
      "##newspaper ": 8310,
      "##necessary ": 8311,
      "##dynam": 8312,
      "##agricultural ": 8313,
      "##electronic ": 8314,
      "##philadelphia ": 8315,
      "##dollar ": 8316,
      "##ulysses ": 8317,
      "##nand": 8318,
      "##62 ": 8319,
      "##gif": 8320,
      "##sell ": 8321,
      "##hud": 8322,
      "##vel": 8323,
      "##mr. ": 8324,
      "##\" this ": 8325,
      "##51 ": 8326,
      "##online ": 8327,
      "##revers": 8328,
      "##ity": 8329,
      "##itz": 8330,
      "##stations ": 8331,
      "##on its ": 8332,
      "##on january ": 8333,
      "##es = =  ": 8334,
      "##is in ": 8335,
      "##ess and ": 8336,
      "##ive to ": 8337,
      "##entry ": 8338,
      "##e , he ": 8339,
      "##th and ": 8340,
      "##grant ": 8341,
      "##plays ": 8342,
      "##played by ": 8343,
      "##include the ": 8344,
      "##ization ": 8345,
      "##. in a ": 8346,
      "##matches ": 8347,
      "##structures ": 8348,
      "##ceres ": 8349,
      "##moor": 8350,
      "##skill": 8351,
      "##so that ": 8352,
      "##passing ": 8353,
      "##causing ": 8354,
      "##importance ": 8355,
      "##along with the ": 8356,
      "##classifi": 8357,
      "##km ( ": 8358,
      "##considerable ": 8359,
      "##involvement ": 8360,
      "##brian ": 8361,
      "## typically ": 8362,
      "##occurred ": 8363,
      "##paper ": 8364,
      "##substitut": 8365,
      "##ield ": 8366,
      "##slowly ": 8367,
      "##responsible for ": 8368,
      "##kilometres ( ": 8369,
      "##veget": 8370,
      "##isabell": 8371,
      "##kansas ": 8372,
      " as ": 8373,
      " when ": 8374,
      "##never": 8375,
      "##fine ": 8376,
      "##ram ": 8377,
      "##san": 8378,
      "##sign ": 8379,
      "##cd ": 8380,
      "##host ": 8381,
      "##lun": 8382,
      "##x , ": 8383,
      "##. three ": 8384,
      "##bc ": 8385,
      "##jif": 8386,
      "## tons ": 8387,
      "##oral ": 8388,
      "##ings in ": 8389,
      "##ous and ": 8390,
      "##isher ": 8391,
      "##use the ": 8392,
      "##absor": 8393,
      "##ria ": 8394,
      "##proport": 8395,
      "##or . ": 8396,
      "##quin": 8397,
      "##ed to have ": 8398,
      "##utt": 8399,
      "##akes ": 8400,
      "##contra": 8401,
      "##, and a ": 8402,
      "##essa ": 8403,
      "##ment of the ": 8404,
      "##artists ": 8405,
      "##but this ": 8406,
      "##when he was ": 8407,
      "##howard ": 8408,
      "##releg": 8409,
      "##way , ": 8410,
      "##ipp": 8411,
      "##ian , ": 8412,
      "##episodes ": 8413,
      "##protest ": 8414,
      "##state highway ": 8415,
      "##landing ": 8416,
      "##officers ": 8417,
      "##changed ": 8418,
      "##him the ": 8419,
      "##legis": 8420,
      "##walter ": 8421,
      "##given the ": 8422,
      "##history of ": 8423,
      "##killing ": 8424,
      "##autom": 8425,
      "##replaced by ": 8426,
      "##president of the ": 8427,
      "##anthony ": 8428,
      "##could": 8429,
      "##recognition ": 8430,
      "##faith ": 8431,
      "##kingdom of ": 8432,
      "##mi ( ": 8433,
      "##right to ": 8434,
      "##rhod": 8435,
      "##ajev": 8436,
      "##situation ": 8437,
      "##prior to ": 8438,
      "##georgian ": 8439,
      "##francis": 8440,
      "##weapon": 8441,
      "##cinem": 8442,
      "##encourag": 8443,
      "##avenue ": 8444,
      "##abu @-@ jamal ": 8445,
      "##fountain ": 8446,
      "##predecess": 8447,
      "##na": 8448,
      "##fos": 8449,
      "##fare ": 8450,
      "##garr": 8451,
      "##sag": 8452,
      "##sab": 8453,
      "##pack": 8454,
      "##caught ": 8455,
      "##ll ": 8456,
      "##migr": 8457,
      "##border ": 8458,
      "##ker": 8459,
      "##89 ": 8460,
      "##24 , ": 8461,
      "##22 , ": 8462,
      "## treat": 8463,
      "##chanc": 8464,
      "##adult": 8465,
      "##in the late ": 8466,
      "##s , \" ": 8467,
      "##otyp": 8468,
      "##integr": 8469,
      "##lip": 8470,
      "##grac": 8471,
      "##from her ": 8472,
      "##actors ": 8473,
      "##austri": 8474,
      "##outstanding ": 8475,
      "##including a ": 8476,
      "##nether": 8477,
      "##made his ": 8478,
      "##simone ": 8479,
      "##incident ": 8480,
      "##received the ": 8481,
      "##freed": 8482,
      "##demol": 8483,
      "##foundation ": 8484,
      "##kingdom": 8485,
      "##activision ": 8486,
      "##certified ": 8487,
      "##classic ": 8488,
      "##between the two ": 8489,
      "##arget": 8490,
      "##network": 8491,
      "##couple ": 8492,
      "##credits ": 8493,
      "##massive ": 8494,
      "##surrounding ": 8495,
      "##sarajev": 8496,
      "##douglas ": 8497,
      "##constantine ": 8498,
      "##legislat": 8499,
      "##120 ": 8500,
      "##93 ": 8501,
      "##eenth ": 8502,
      "##dh": 8503,
      "##yu": 8504,
      "##lb": 8505,
      "##lem": 8506,
      "##lanc": 8507,
      "##lob": 8508,
      "##w. ": 8509,
      "##us of ": 8510,
      "##58 ": 8511,
      "##59 ": 8512,
      "##02 ": 8513,
      "##, was ": 8514,
      "##rebel": 8515,
      "##. its ": 8516,
      "##. other ": 8517,
      "##on april ": 8518,
      "##as his ": 8519,
      "##\" by ": 8520,
      "##m and ": 8521,
      "##been": 8522,
      "##park , ": 8523,
      "##perry ": 8524,
      "##worst ": 8525,
      "##5 and ": 8526,
      "##assess": 8527,
      "##assert": 8528,
      "##ritory ": 8529,
      "##aster": 8530,
      "##es , but ": 8531,
      "##decline ": 8532,
      "##coordin": 8533,
      "##provinc": 8534,
      "##ultane": 8535,
      "##her to ": 8536,
      "##fire": 8537,
      "##faced ": 8538,
      "##singing ": 8539,
      "##canal ": 8540,
      "##visited ": 8541,
      "##officer ": 8542,
      "##legacy ": 8543,
      "##condition ": 8544,
      "##moder": 8545,
      "##drain": 8546,
      "##magnet": 8547,
      "##advoc": 8548,
      "## them , ": 8549,
      "##victim": 8550,
      "##required ": 8551,
      "##life = =  ": 8552,
      "##football": 8553,
      "##supporting ": 8554,
      "##scription ": 8555,
      "##ures , ": 8556,
      "##penalty ": 8557,
      "##god of ": 8558,
      "##richard": 8559,
      "## this time ": 8560,
      "##ekant": 8561,
      "## theatre ": 8562,
      "##assigned to ": 8563,
      "##missouri river ": 8564,
      "##louis ": 8565,
      "##narrow ": 8566,
      "##career , ": 8567,
      "##nighting": 8568,
      "##photograph": 8569,
      "##unique ": 8570,
      "##sources ": 8571,
      "##regularly ": 8572,
      "##daniel ": 8573,
      "##supreme ": 8574,
      "##caribbean ": 8575,
      "##leukem": 8576,
      "##ninth ": 8577,
      "##, their ": 8578,
      "##tow": 8579,
      "##e.": 8580,
      "##eo ": 8581,
      "##dd ": 8582,
      "##dres": 8583,
      "##gone ": 8584,
      "##cia ": 8585,
      "##cake ": 8586,
      "##lap ": 8587,
      "##kenn": 8588,
      "##57 ": 8589,
      "##06 ": 8590,
      "##e from ": 8591,
      "##s ) ": 8592,
      "##s = =  ": 8593,
      "##ed or ": 8594,
      "##reality ": 8595,
      "##ingham ": 8596,
      "##amount": 8597,
      "##\"  ": 8598,
      "##at @-@ ": 8599,
      "##was in ": 8600,
      "##was later ": 8601,
      "##plum": 8602,
      "##usal": 8603,
      "##it has ": 8604,
      "##bure": 8605,
      "##struggl": 8606,
      "##ournament ": 8607,
      "##grass": 8608,
      "##brand": 8609,
      "##ogu": 8610,
      "##aston ": 8611,
      "##internation": 8612,
      "##muscar": 8613,
      "##most of ": 8614,
      "##cool": 8615,
      "##herz": 8616,
      "##released on ": 8617,
      "##ship was ": 8618,
      "##recept": 8619,
      "##barbar": 8620,
      "##invent": 8621,
      "##simpl": 8622,
      "##metro": 8623,
      "##eful": 8624,
      "##12 , ": 8625,
      "## transl": 8626,
      "##squad ": 8627,
      "##role of ": 8628,
      "##cycle ": 8629,
      "## those who ": 8630,
      "##saying that ": 8631,
      "##become a ": 8632,
      "##consisted of ": 8633,
      "##jerusal": 8634,
      "##beyond ": 8635,
      "##bishop": 8636,
      "##watersh": 8637,
      "##o 'bri": 8638,
      "##propert": 8639,
      "##nba ": 8640,
      "##diamet": 8641,
      "##repair": 8642,
      "##accompani": 8643,
      "##baltimore ": 8644,
      "##literature ": 8645,
      "##extremely ": 8646,
      "##contrast ": 8647,
      "##a signific": 8648,
      "##crazy in love \" ": 8649,
      "##resourc": 8650,
      "##contrast": 8651,
      "##ain the ": 8652,
      "##a two @-@ ": 8653,
      "##rig": 8654,
      "##gas ": 8655,
      "##pist": 8656,
      "##bone ": 8657,
      "##wim": 8658,
      "##'s the ": 8659,
      "##77 ": 8660,
      "##52 ": 8661,
      "##zone ": 8662,
      "##× ": 8663,
      "##inde": 8664,
      "##arv": 8665,
      "##arian ": 8666,
      "##. but ": 8667,
      "##. she was ": 8668,
      "##in march ": 8669,
      "##as \" the ": 8670,
      "##witness": 8671,
      "##uss ": 8672,
      "##ush ": 8673,
      "##su ": 8674,
      "##been the ": 8675,
      "##spread ": 8676,
      "##umb": 8677,
      "##attempt ": 8678,
      "##ifying ": 8679,
      "##anton": 8680,
      "##ed in 19": 8681,
      "##carry ": 8682,
      "##desir": 8683,
      "##fred ": 8684,
      "##joint ": 8685,
      "##offer ": 8686,
      "##annivers": 8687,
      "##upon the ": 8688,
      "##notic": 8689,
      "##battl": 8690,
      "##underbirds ": 8691,
      "##appearances ": 8692,
      "##simultane": 8693,
      "##curv": 8694,
      "##memory ": 8695,
      "##forced ": 8696,
      "##door ": 8697,
      "##back to the ": 8698,
      "##hamil": 8699,
      "##spirit": 8700,
      "##animals ": 8701,
      "##town of ": 8702,
      "##journey ": 8703,
      "##was released in ": 8704,
      "## turned ": 8705,
      "##piece ": 8706,
      "##rocky ": 8707,
      "##academy ": 8708,
      "##credited ": 8709,
      "##hall of ": 8710,
      "##extra ": 8711,
      "##rarely ": 8712,
      "##mushroom ": 8713,
      "##library ": 8714,
      "##dissipated ": 8715,
      "##gordon ": 8716,
      "##jazz ": 8717,
      "##ousands of ": 8718,
      "##1 to ": 8719,
      "##67 ": 8720,
      "##dates ": 8721,
      "##py": 8722,
      "##ys ": 8723,
      "##ced": 8724,
      "##cited ": 8725,
      "##bun": 8726,
      "##inside ": 8727,
      "##erce ": 8728,
      "##y of the ": 8729,
      "##ors and ": 8730,
      "##alan ": 8731,
      "##at t": 8732,
      "##reconn": 8733,
      "##a ) , ": 8734,
      "##on march ": 8735,
      "##ico ": 8736,
[...]
